9ADCF5064404480A
AD171A23E8433719
19DBF59804DEFA31
1AF1DCFBDF14F702
E128D24C36D6F1E4
394510D7DE190404
10E52CEE08DFD4C8
E914E903E91F057F
5B310D05FE59D91F
3F1306ECE1E410CB
F2112D0A163C1AD8
30D836AB3450051C
7B262F25C5DA642F
FDF5B67F153E183C
64EA45DCFFFB5724
2BF14270041589E1
705CDBE77F0AE46A
6461D9C95121B0CB
BDC5BF0DF4B692CA
F32F0984C1E8EDCB
E716BB3016B266F9
EACE1DD426D6FC4D
4E176F1C0DB90C04
B9CD45B9046D7EE0
0000000000000000
0000000000000000
0000000000000000
0000000000000000
0000000000000000
0000000000000000
0000000000000000
0000000000000000
EF07FACF49D21431
D8F5FED7222362CE
E9D01D080713EEEA
F60C0B08ED1F2725
DFFADA14D218F816
C20600F9BEE808DE
7F2828DDA413CD1D
12110B2BEDCCF811
61150C1B42EA01DB
0FDFE8C52C7CDBF3
C1D323D74B6AF5A8
D97F9B234211A760
CFDA140B3408287A
4C0C08E808B5F420
E14BF223EC38262F
F4E22FEBBBB6F922
0F19C01153A7F80D
182943511A32E42F
16275FDFB9AFD405
24ED50F2AE3317AF
BB130F14A7B2D9E9
01E126BDB44332E6
C043F974CB320A7F
1622F2F91B285084
C9EED9FF68FC40DC
098D2C0C0D22BEC8
C913E57F0DCC0402
C7C038E4063C140A
FFF2E7C5001707E0
3DF9083C5706E10C
91261F1FDE4331E0
E00ACD35CD292703
E10CEC15DDFAC00E
D60E1B0B1026F2E8
DFDC1EE70314E6F7
1BF2E4DBFB5218FE
23FB01EEE6FFEAF4
C113E7CECE0918CB
FB47E67FAD310615
EADFE6CED4BDFBE9
AB2BC61FB00B0652
DA16101D002BD4C3
35FA110EE01EF3C0
22EAD0391FBEF8FE
50EDC77A5F14E10B
55CAD7F57F19D723
364FE946DD201BF5
620E0C30E5DAB014
ED2A32E44226F72E
24F927FA2BF82608
CAFDFA04E98141BA
2AA40517131CD215
29F608E936FA140A
E108F03F2011EE11
F0201F1A08C02F1A
32E4CE0AEFAAC4E2
1E0638E2C80085CB
18FC7FDFE2060AFF
00381CF3130FE7A4
05001696F5D2141C
E42B151A0040EE45
FF05D6DCF8191ED2
FFF3D5236C19F0ED
2535D3E803F6FC01
0000000000000000
0000000000000000
0000000000000000
0000000000000000
0000000000000000
0000000000000000
0000000000000000
0000000000000000
0000000000000000
0000000000000000
0000000000000000
0000000000000000
0000000000000000
0000000000000000
0000000000000000
0000000000000000
3713D9DD204A40E9
FFF73B151A2D222B
23D00636F55BDEEE
29CE2CE21101DB26
40DDF201E2F31012
58E3F27FB10DF33A
1AFBF7132B121845
FF02FFECE80EF831
0D253113C727C513
7FF218FF342B1CBF
F1D0A54CFD14BA16
1C0C160CE805082F
FFD6ECF5E4152B0A
4CBEDD5F411616F1
DD19FAF90815F60A
CDBC3CF00329D926
ECF6002A0FFA46F4
161008B8EBF9FAD2
EC20FEFC057FC6DE
DCE12FFAF113071F
1508FB20E62A0BDA
EA04DEFCF2A61FD8
DDF5F5F9CFE3FDF2
191A2F13F922DBE2
21FAF819060BFE1A
16F2AED504D6D3FB
E33D5619222381EC
46E9D417ED9FF00B
34FDD6E3D22DDDE4
37E02406FBA9F70B
1C1C141F0A3AFC0D
07DC0623281B11D6
381519D0C90B93FD
04EAD1E0C8A9CEFD
FB3457D31AE2049D
AB0019E3CE2A0BE9
2504F1BABAFD05FE
22F4FD21204CA314
FDD1133120C35423
7FF208F90400103B
FC3313C1D12BCC2E
CAD2D33D5879D902
F2E1D1BA3037D545
41810DECD81A062A
12E0D92AF113E045
E432E1DFCE500FDC
1102CE37C52BF959
11FDC2EEB55201FF
D9FDFBF2DE1CF657
214499004428DDE1
23D0F8E90767E5F1
37FE810644A20518
CCE4E91EFF2A46CD
1FC0DBA7FBBC54ED
DF161B22CF222BEA
39F43742FE531CEF
0BE5EB40E201D536
EE2401FD1C34EBDF
20BAF609EE1ACF43
1805EABE1EBB090E
CDFDF1E602DF6114
F9E704B827073EEE
E3F1EA7F04112CE5
DDFA1E092D0035F4
FBBECE0E051AFA01
1D1B5E16BACD6635
480755BCEC1E05FA
0FCBF92A07E8FCBB
DFD922478114F043
BEF223DCFEE4FB16
30F1D50628E8D327
E82CD01577E1F826
F52B3A03D832E513
CF0EFDFCFEDDB7EF
34E23E257D23F643
3613000A1DEE7816
F323DE14B33BF52F
0607FCF181D3362C
BB142BCBE70CDA06
51C4F84BB328231B
BC350A0114D6E315
F40F2AC10DF5F022
E30207E35316CBC7
F5EB1B17D9F3ED04
3CFC0AFF7F3EF7F3
D028CDE7DA260A0B
221C0D13F5E8EC12
E716D806D3E8F104
EDFD0FF51949F809
E3F517EF3AEC240C
EDFBC2321FBB0A1D
15B42152FC02C7E8
540BF50D6827EBF6
CE1C086B8177DF17
3BCC18EDFAE4D900
EAE20E309B2803BA
FD1FBD232CAD2716
576D103E2C2A0147
D9069DB7205F3E1B
09C47FCDF4222DE5
0672CBF1074ECDEB
57CED1F8EF5BEC21
F92017461108E6A1
363BB89B2411E2CD
0E4278092622B8BE
08EAD7E60BF90313
D91D04C20144E0B4
E34311F82C07F21E
AA19FFC8AAED1938
FA7FF4DE2DCB1445
DEFF1EEBE8D5F43E
E106E3B642F307D8
CDD17FB9D210FC19
31E12CEB11122F4B
2C1A024E34E10112
1E210C14EBD23018
19D4230B3DC8D200
324201ED0E101C0E
FEB503E123DF1A09
0344CF6E47001C00
FACF7F17F034AF06
31E742EA0C1FEBBF
D9E122E20FE2C0B6
11E803DBFF46D817
0AF31116E8FB0DF8
5D2E160305E5280B
D210090BEB2FEB56
C3FBF60224DF070A
90620EE9EB0269E4
383B1DCDC0E9B4BC
B61615F7DE7FB924
F7500CC95DF5F500
1A9E03B85EF9F4F6
15D8D8F75559E6BF
483F321F5D1302C1
682C3E1A20279C6C
26F90D015763F311
FF41D38A3709F133
CEFAFC99EA81EBFC
07DFCCB60CF4DD10
0416F934213B2A12
D7A802AF00BC05CC
04F213C9B300E08B
FACE02A4FF40D125
EAD0F73BDE369A1E
EE2B13D7EB819CA6
EC36C8FAE919D7D6
103EF1FA00A0C9D2
1B6BC8C4EE2D26F6
FC190D0AB7190857
391E66F33D2DE6DC
251B39E90CFFE9D5
04173100D2F3D542
FCEFA621DF030AD6
21EBD4BE213DB43B
20F1C4D6BDF9F413
149C04E0EFEC4040
E414BDF6BA814543
0E31F032CEC91143
E4DB0EDB2F2F5DEA
AE7F13F4E3DE05DB
1A231649F9F95CC8
10F9F0C6FC07FD5A
DB3A0DE4CC0C2C01
1A04E3FCE2EDDC44
1CE91A22C4F3DD2E
13001D6D0C1508E5
1B06FDDEEE58FBAA
05A80D58DEE83C34
3102C5CF04CBCAC0
FBFDB72DC020F18E
B6027F1AB65AF9B0
D02422D5ED2C0D8A
D60C51F0439F0E46
F6FDEB26CA2E1CD1
24B811312FAFFEF1
0502F9EB0B0DE0FF
08F5C9B1241EFCFD
F924BBE5FE0B1E56
0206BB38E713DCD6
5950FA147F4B0519
C036F3F7F5193214
FFD0FB412B093921
07201353CAF7FCFC
F9EE2BF72C097F25
FEF848F0DF410C06
25EFFFECF6C2275A
27F70FBCDD09190E
E04DCC17210E2524
23F0D8100436DAED
031CFBF84E231E21
EC1212F523022D33
0D03D47D3FCF2BCA
E2CCA9B21A1AAC1F
CB73A2B7C11D3635
48F8E79B61481FCD
BA7E811B57663F45
E23429AF07FEEF56
34CF13CDEFF5CFE8
DAF43CF8D82DCA89
D6F80C2BFDF50A35
E904272CC85004DF
3F0DE7B6ED1D1650
3DD116CFCDBB0234
D781131D0AEB4249
00E21108CB18FD20
E40AFC2208056BFC
E4E1F0DED31405D0
EFE46081025EDDFF
4F2E7F39C9404624
EAB334E24F1CFEAE
5EDDB9E0FB31FD37
0806F264F4062144
20D4F4FAB5EBFE45
5794D3FF15FD6003
05651FD92AD55CE4
110D24E7F603FFFA
6E60F2E24B40F738
0E3CF10B04032CFA
2CFFAEEE1F7F18F7
01E001F866D13E0B
E3E92457D739EF41
210FCD23ECF7F240
F519EFD809DB161E
FAEA0CBB171C16D8
FA0C0D2DD6E60335
0EDD21023FFE1054
131981213BCC25FA
33EC190A203EDE0B
C220DE1027CBF603
E2482ADADFC9D327
0DDDB41819B9D6CD
FBCB0425F10B28F4
18F6EF00E9E215F7
F100F0F5F00108F9
ED1BF77F29EEFEF9
EC0C1601130A0DFF
20D1FB010C11E9F7
E4F6F6E91801EAEE
FDEED2F31CE9D0FF
26F5DDDF07E8F0F0
272013BAE9E2FBD6
EAEAB0F837D3E6CA
CAE0F31AECECE517
F27FE1EDF713FFDE
07FAE6DF0443D5F4
FB00F6F3FBBEE0AE
E832E4E0E3EEF8F7
E81F2106DA1EEB02
C5CEC0EA26F2FDE2
34EBDE26F1C6F0D2
1CC41903D111060D
3CF13819E3F8060F
F1EFCE28E1D0312F
DCDDB129CF0B7F57
F2E70A591BE02AEB
D756D5F569DD0D0D
A31FCADB02EA9A41
CE7F41B4DE21090B
11CD2212FA0909DF
44EBBDEFFC12DF08
E5B03E3EC24FF1F5
13E930DB1A58C53F
EF1234DCB83F3313
0000000000000000
0000000000000000
0000000000000000
0000000000000000
0000000000000000
0000000000000000
0000000000000000
0000000000000000
132FC68142A97DF3
004DFDF326041BE1
24D2E2DBE21FFAC1
02EE16582CE912B1
0F0DE3A4F5D3C7F1
72EB53179047EA15
1C27A81205F5DB45
BE2F0FF72210F056
B4211DE7DB116346
555100E4F04CB294
F207A5E0D7C4C70C
1BD2C61652ADF256
D6EAB8EE14F61968
0DEEE30EABF7211E
FF055A0E329BB8A4
6AEFF60FFED5F97F
00ECE2B4E9E2C1F6
D42B3C7F26CCF71C
5DD3FAE810E21F03
FDF1C4F326A8F908
C5AD49CE34E1CCF1
EC0419871418DE08
0E08DA15F528E700
E80EA2F809044E53
FFEBEBE5E9CF2AEC
B6F6DE6402E7D6FD
3C3B43EFA154B8D5
D74A2D12F04908EC
2DBD3BCAD5DE1C10
F1E1DE6A34813718
FBCFF55E1D221411
EBB21065E60EB398
05F40B0FDCF8DB18
E2FF0DCAF31BD4F7
1BE9F2164035DF02
0FFD44F8ECEF1F14
E57FF10201271D1B
E72BF6C2E1EC1817
FECAEEEB02E502FD
0EE4E016FB264DD8
1803EB12040BEAD8
CEF9254017EC11D0
E4523AF8AC7FCF1C
0627BD12100FBA14
FDBAFCD8FC66DBEB
79EBFF1AF0E6ECC9
25F7E7ECF262FE19
B91AF01CE6C035E4
F0E9F8DBAADE6A5A
F07F01FD297AC2E5
13E8E40FE3F3C8F0
FE0798F8484BF1F3
CCA11536E728F822
2F59C9DB151D3CF5
28211E4FC16B1BE0
1F01D1F10CFEFE29
12152628BBFD2EDC
12291C0D32A6434A
0BBCBDF5FBCE2E0C
37FF1535FADF22BD
F76066C05A65F104
DE0E5A03BFBD274C
E5132CA3CDE9F2F5
2D08C9F003212E81
FFEE01F8FEF445CA
33D6ED010E54015A
3F452EC3E77E7F4C
DC4AA90C1647EBF5
3112F6D73ABA2813
35F72BA5C2C9EE54
2F120DD1AFEDEBFB
90D5EC3B4AF007A7
2A21042F54F6D8EC
BBBEE0C9F9FD9A39
E9223217DC111011
F01949C63AFFD6C9
127FFEC3EFF505E9
D7E8243CECF80A19
FBDEEC29F1D9DD15
F8FA15B7C9F723DA
1EE51D00329FEF2D
D504FCCDE9F721F8
24F41D7F24F40F13
F5FA4D0208DF3D03
3C12E141F1D7FEEF
47FEE0FC0B08FCBE
E520F4D81AF002BF
C7F5F17C07E8E71F
6F433ABDC7D00F4D
41ED29DEBE9F1FDD
1AEC09733916F6EF
F726A9FEA7C8EF37
19B2F08108F5F9E1
EBF9D32EE9E80513
F64DE302B5CF1950
2B16D4E51DACDA30
3A243F4D0FDEB302
FDEEFD73D4E3233D
66A110125EFE447F
0751251509FB04DD
F6ED0CD250B3E92C
A32439A8ED380104
13C8F7FB35C2D9E8
0A21F7E90B38F904
2CE14C42BE340220
1E143148FE5CEAC2
3981E80D14E9865E
209FECD4E8E77F1C
528A5145019EEC1C
59B5D3ABDA450CCF
D1C7DF4D256A3B01
D9DD443D0EEB511E
3BE6ED3904290B67
2C36C54650E7C1AC
EBE7B3C012BA9505
3312892CEE3D0309
2AF4C44A14FDFC11
3ED5A1B46AE55781
C908C00602B209C4
224622F322E2E42E
D2F918130902B11C
0501241F18090612
11440A0A4DF608DA
3234FBF0DAB8FC14
2E49F4E27FF4082E
F31AF01A55FE26ED
222AD19D03F52A08
1FDCE4F90EC7E41B
