F7EEF0F58173BBE8
A3530596E8346500
48F1382E215327A7
0E182BC2FA428F2B
63A52C8136E13367
E9EAE49C59657FD2
565A17B3D73738DC
810F2BC71A0F2A7F
1FEB8139A0058A7F
3A67DD00DD237FB9
682C7B5DF33A7B81
44744381181CDE4E
7FA3510622F2267F
C91181B37F59F7C5
7F11E38181EF57FF
9F64449878445552
8104153E9DC0D378
7F42A130D72F4381
3F373736C5027F9E
473E18AC13ED3232
430353150A078101
0C2FA7D86AF6E1B8
3E8181B2E1813C0A
D36827C36F5A5509
47039058AF7981B4
AF48E081885E4BEF
66505F52B47227B7
985B67B1157FB845
3981819B637F4E17
F73C8FA13F71CCF6
575F45AC56586298
273E36FD35429D28
24383A7F866DDE39
E77F2ABCB67F71B5
7F7E7F7F947F5B8E
CE7F7F82686E497F
4CD9A61B7F725E18
CB7F85817B7F34AA
6EBB6E91EF2B7F99
DC7F7F097F7F24A3
B855525B32121763
5F35DD04B43A22CF
3A472044815756D7
2F4449A57FF57F40
233605FF162C8DAC
D752C4E66DE4F58A
409E11B618853703
C15D3F186E727FCB
2F819351E2208BB3
010914D8C5550EEB
14602B29973EF59E
CC2D5EEF181FEF28
FA8C2AB23B712FE1
F366B5B53746F816
262BCAC8610A38BF
51471E670A6A8299
EECA5E5AF87FDFE0
9C1A8137817A2493
147F13498E6DF984
813C5BDF3F3F6740
05E400275E6F3EE7
817DD2935943C2CD
16B8FDCCEB533781
593A377F136F9BE0
C609071B094F4505
1206C7B4812625BB
F6430430AD7B1EE3
B01A2A0B4B156D2F
1501EE02102EFCB3
8E1DF3DC1C0E9081
F6C1E5F9E39E12F4
3A0D1A2DFF1A0EEA
