23FDE70F003A28C5
2443000017F5F64C
D0E7D01FB6A720F3
A207133195FB8CDF
04ADBAF783D60EFF
007F2A40A9BD0EE0
050D066CFDD875FB
3E93060FC6BD051B
0D19D49F007F00F5
23D100007D5E0468
8122F16348474720
37F8182BCFF6EEA2
0525EB1B36316B67
00D1C934E603C5E6
620C0559E904554E
DB2FCCC34F09EFC8
2506FF0C00498CF4
D26C0000186CDDEB
48DBA9BAE904E7CE
492C0035D43A10D6
0319C00A263C2422
00428114C4F52005
A0D7F5F8F920E9AC
FC0BFED4C6260D21
06F725E600D8F2CA
B4160000E6E462FF
B8C91021E71EECCD
357F30D6219FE9FB
FBEDDBEC0AD8E8F4
00A930FCE705F814
DA09FB3A1BA9DC2A
C05A0802E50B22EF
0204F6C8002EBFEF
035000001DA0A3AA
C0BAFF458E691687
1BB21AC33458E8B4
631BFEE82FC909CB
00FEFCBC3EE908BA
0FC5F4FF02962BB9
43217F2A771DD1DB
1CFEEA5A0008006A
EF7F0000B0B2F5D7
0FCE3A1DE237DAB2
FED60EC8123D09A7
1C10320A57482FEC
00E6F007D70F0C99
243F1AAC25180DEE
F4B1E2E2BB402027
F3E8442700EDD5F3
BEEB0000F0E60225
39FEDFFFEF14B121
FB00FCF3C0F9C938
FBC3F581B924EE31
00F222B91AE309E0
EFC3E2D0B31D01ED
2F0E9630B5192BE9
15E1FED4002EE9D2
E5C30000D9CC9AF2
B3F423D0ACFFF125
3BDF9981FA07012D
462EF310A2100FF4
00FD0ED2531F03A1
DB20F3DB0D01EB1F
E8301D5F13D8C0EB
01E73C010000087F
E8E80000DE0B2EED
3A9CF8EEB3DE01C7
A9FDDDC918D2AA6E
FAE6FDFB4D0120F8
00C4A2E707DC18FB
22CCF9A2FA1B072F
DAD2DDFFF34C9116
B5CA1D0E0012D42F
4D450000E0256803
1411FBC71A4D21EC
C71605ED4B3CDCFB
01E11A11CFBA2428
000519874101271F
CA0DFFEC24F77FA9
ECB8F59E53E9BC0E
DFFA1B41000A1217
2015000010C754B5
FCCA18FF11EB2417
FF5BE713F70C221D
16F9FB0EC219E471
00FB0ED8E4DA0BC5
F0110E0BED302DD6
E5297F3DD6EDF95F
F027DFA80032BCC9
582800002B57ED24
BB1DBD3F07062D20
03100F260EEEFFF1
761C1FEE3837150C
00FBF710C2290621
6815EE1AFF1E526A
0FEDDF0E1BB07FD9
13FD052000FF0CEB
16F4000003C410E1
08CC2448ADAF0035
C7D5D8DFF7FB81EB
FD4D0226F20DFADA
00E0F42902230016
1808D9E12F4CCF16
2D1A491D414DD1F6
DDD5F10C001017A5
1AF500000BDD73E9
17DE2239C02B46AE
38092281EAC11CE0
1A14DB01E31D1EFD
0008FA2FF6160CCD
15262913D309D8EE
D62CFF5C0EF33CBF
0700F63100DF17FD
F946000018F7F7C3
E1D0E805CBCFDBDD
0D94BBEBE603AB0A
DA00F044F3CDEF27
00E1B2F9DFE50856
0BDDE5C313D3D2C1
B17FF824386F36E3
22DC09D600BDE8F0
0018000009EC1F7F
052FD4102EE870FB
C8273AC839D51C4E
D203EC0D75EA1853
00EAF01E0F05CA0F
F40DEEE349CF7F5D
ECE422DF920DFE14
10FC031600D5EB38
ECD20000DFE4A300
7FCB09E2C0AFC909
EE00F1BA3FDB0C3B
402F155722E319D7
00E1F9EB346DDD0C
CB010E8509C10F60
19DA4F9C001BD5E3
0000000000000000
0000000000000000
0000000000000000
0000000000000000
0000000000000000
0000000000000000
0000000000000000
0000000000000000
02E4044C001E8E0E
FF320000CE9D3C95
DBE03AEB12073CC8
CC02F5610E25055F
359416FF1C03C62A
008145E915E702DE
D10A10F8EA022524
DAE290BC0C58DB10
0000000000000000
0000000000000000
0000000000000000
0000000000000000
0000000000000000
0000000000000000
0000000000000000
0000000000000000
0A001816003BFC07
1A200000D90933D9
02F86A19D919F812
033B12CB1E0CEE04
09161903E40913E1
00E2FFF2F7030AE6
DE080CEE07FD05EE
097F460E633EEDFD
1A010CC8009DE75F
09ED0000170B56CE
C4DDBCADD7C11AE6
2813EEFAE2E1F449
2EE1090CAF52F93D
00CBE04181EEC804
9200F5700A222E28
B026E8241CBFF5F9
23F62C3C0048B3EE
1FFD000006470BE4
11B4C00BC242EBEA
160D301226050FE2
44FDF1DCCF1713A4
00BE44D00E46140A
111EDFEF34BC7F36
32F2DE0356DD11E0
0000000000000000
0000000000000000
0000000000000000
0000000000000000
0000000000000000
0000000000000000
0000000000000000
0000000000000000
ECFFE8020009F5C5
060F0000F0021549
BD09F7F42E014AF5
D95FC9E2F6AC0EE9
DD1AF3F8DBFBD4F0
007F25FAE7000643
EDDF071708BCDCB0
0916E3011A13E500
0000000000000000
0000000000000000
0000000000000000
0000000000000000
0000000000000000
0000000000000000
0000000000000000
0000000000000000
FA1B1929000A4211
F7F100001DB0FFE7
0A6CFD2A1092FE3E
A451C4D623AD0435
D6F1F515DA810AF5
00C1E21BC870F0AA
18F5F9FF02F8290E
021AFA47E00EB305
01F005D800D54318
E5FD0000D3B50E02
5439D40EBB2AF7B4
2014F69A422EE218
79C4329D2422E5E7
0024382BCA81E3A9
101EF9081D0842BC
29B3FE1FA091A8E1
07FAE17400F63C13
DED600002A33D5E3
E33A1808FD4B9814
E212CE74E8F9EBE4
320BE1CBF211EFDE
00E62E074B2A0CFE
1FE0D07F0003F32C
554600D1E3BC2028
FBFCF34100D80010
EAB500002FD4F6E7
26A4FB32D8C30EB3
35CD36ED0CC6D525
E6F7DE1C51122F35
00C5E27FE5030A18
00D2EAC5F407DFFF
04CB16BF04EFFED5
0000000000000000
0000000000000000
0000000000000000
0000000000000000
0000000000000000
0000000000000000
0000000000000000
0000000000000000
16182357007FADE5
251C0000D2CE16BA
D3AA1CDA0AF43411
01F70363F60BF992
17D9D03EFDD709FF
000E22A68FD021EC
DAE8F60DD7000E0E
500B0E16CB2007DC
F7FCE71100D914EE
E8E5000009E70719
D712DAFD2F05F01C
ED00092BD2ED0BE5
25020B12D905F20E
00EA0AFE7F19183C
24F4FC0AED2D2CE7
1D1DE4F01510EBF0
F12310EC002ADD10
1D3100002505123D
E40FD4F219EFFE00
3B590FF90D3F12D5
E611F6E5F23D1CEC
00DA34EBE4D90510
072C1635C8FC7B23
161F25241E1C7F07
06FD2C04009E2421
00440000BD54E815
18D2A420C42F10EB
C4B53D81FC154D5B
E5192AE2B3F6F2F8
00D2D1B72EFBF7DB
5202DAE0F83313E8
39E41EC75C241ED4
F0092A61007FD4B2
0FF70000C02807A0
FA7B0423D9CDDE2D
E902D6213F4AB631
0FDDEEE7F3512319
003DD6D7ABDEF7D8
F1F2FBFC06F2E101
1B46CD70BBE6F2F4
1ADEDBE000F1D2D3
EA7F0000E1EC19E7
2F11E9E9052CF1E7
D54456330A3AD020
E503EAF628EE0C3E
003307DCE20DF4E7
EE5407CC19E028EE
D33B27E74AE445E7
293027EC002101D4
0803000021D4F234
0CD34A67E0113829
4E05E9F652ED06C7
DC11F00D81C620F5
00F9F70F371AC623
E4F315EFF903262B
291814C2EE04FFFB
D8F6F626003E3B01
F10600002000EF1E
0DD50DEC28AA2FC2
2C3BBD9132493F33
DDE940293C5CDDA2
00C037CF81C62908
F9E703A01315049D
5CA191235717EE2F
1D55E7EC005CF55E
D90D0000583D110C
0C1A05F02F121D34
3F8E0307AB01CB7F
11D6DDE9EDC9E210
006DEDEFCC4DF02C
34D914D3D2F5FD2A
FE2DEF13C0E23517
CEE5EF4A00FAE8F7
0F040000E9FAF515
D74A12C9212A90F9
FE5EA4C7282E040F
0DE50F010F7F20E4
001B33BBC4B41307
E5D9FBDE03F30BAA
38D5C70FE2FDDA23
FDCE343900A70B81
0EE50000D8980BB9
25F22922DEB424E4
5B0E11F225FC12E2
083102121C4FDDA2
00C4DF5523F318C6
03016A1DFF7DA7E9
EE10180011FDE901
390DE8A80061CDF8
565F00003C28973C
C4A09A27412C7FB2
F6B3E2E20CDC1B0C
083DED3E00192CE3
00F89109B52DF731
E9F408241BB72862
D9E99CA87CCE3AD9
023A04CD00EB0CFE
1C130000E2A7DBCB
D8E859B4DBE1FAF7
7F68CFDA08E6FCCB
292016CAC57E23C2
00D2EC510922E5F0
01FE0026F420C662
CC1F1C3937D43A44
0000000000000000
0000000000000000
0000000000000000
0000000000000000
0000000000000000
0000000000000000
0000000000000000
0000000000000000
0000000000000000
0000000000000000
0000000000000000
0000000000000000
0000000000000000
0000000000000000
0000000000000000
0000000000000000
B827240C00FCBACF
3D3F0000C7011D08
0EDBC849ECDC0313
E4BD36812C1BF3F4
1B401A1FB745EA25
009AC347F7470AA5
0C4C181BFCF03B24
D9BB1AE0DBDA1ED3
12F2200A0006DC0F
B7FC0000CE2A7781
F9CFFECFE8E5D915
DB0D0163F4FCFD4A
210DFAFBC556FADA
000746061338F305
B0F7EF2C00CAEC46
1154EEF35EF3130B
D5EA2A8D000F2BF1
DBE400004F02C62A
D1C0D038D543BE64
E22A8E20D150F481
37D70BD1F54BEDAF
004908D7FDF8F931
5DC5FAE6FCAC12E0
1948E34307EF0D17
2CFB034F0025077F
160F00002F42F905
0EFE0ADA01E51817
FCFEC6F60DE51266
FAEC133B03BD071E
0006C81EE842FC20
0D00FB0AF2FCE01A
DE06DC07F520AF40
D60E135C00CD2108
2A1A000021EF19F0
06E1F6AEA9BD0941
19D6EAF2470CE9ED
24132EE2C17F19DC
0007E70B6B51F3FB
F5DB2241070FD11F
12C60112DA0E0221
4E35FB37000AF20B
F32A0000FEF69816
1FF417EDBF06EB1A
568FF19E1EE92AF7
0A381FF1E50271F9
00E4A415F081F89F
E7FD1DBA2EFEFCCA
F3A2F92C1DE1D8F7
131E00BA00C5C9D7
2BE7000062D7C2A4
0D5A7BC5E8B5E7FB
53CFB9692AFD8FEF
E7C8BDB71B55C727
00F6F9147D2B1A7F
11E9CEFFC94CEB3A
C22BE67F2D44E7FB
0000000000000000
0000000000000000
0000000000000000
0000000000000000
0000000000000000
0000000000000000
0000000000000000
0000000000000000
BDDE2F5800FB0C7F
10A10000F9FE3531
B65BC5F5F7D1BD2F
2CD556BD93B95E1E
0071C975DD533CDC
009212D2E9F0FCE7
6516F4340C0BFD0B
F00D13DFE642FDCE
19D3203A00B40DAA
18C30000FDCDFC1E
7F32E15240ED27DB
A9073BE053B7E8E8
DEE8F2F130E8EA55
001F0A18DEE60619
CB1403C6DE1117E1
EBF018A00931EEFB
0FE008A2001FE8E1
E0090000B1317DDE
F4E51B35EC21F12C
E8B07F26B718F59A
0BC3E5B4340CD003
0012F8E27DD4FCFA
E35EFEAD13D5B6EC
D0495408CED7DB13
0000000000000000
0000000000000000
0000000000000000
0000000000000000
0000000000000000
0000000000000000
0000000000000000
0000000000000000
FDFB00DA00081D3D
F3E00000E5D5173A
1EF924FC0E0E4808
DAF61EB70508DC21
0FD91F190C03E117
00060CD6CBF411E0
7FFCF3E21E1008ED
02EEEE0BB3EECDFE
0000000000000000
0000000000000000
0000000000000000
0000000000000000
0000000000000000
0000000000000000
0000000000000000
0000000000000000
0C0E2AA500DE2AE6
CBC90000D3E8094F
42BA17DCD328316F
DBF613B51DFFE609
31FE1BFCD81C0517
001FEEAFFCC5FDC1
24FD33870CF602DF
BC81ECD502EDEC00
01F80A6700D3F3F2
0C1400001D02FD02
0735EFF3EDEBF4ED
06E2D1E216C8D810
E91FF711E006FE08
00E520F5140905FC
E0E80D0CF0F5FAF3
11160900427FD8FE
0815422C00F89801
3868000001FB1329
F360AD31DEE9080D
09E00524FFFABBD0
D7F3F5D1DF02F9DA
003CCD7FB4ECDDBC
DBD90D4F14EA3009
462B34AF193B3BC0
E8EC035500541D55
9E2B0000101EFA9E
EDFEA6EFD1B7EF5D
012D1B1D33F9CE22
8148FD0B06160DCD
0036D1EC9B25F5C5
AF03241CFB350AAE
3243BC0DB5262EF4
04F40DD30024F449
1303000007E32C09
B9E17F2BD2EF0B1E
2015E708E31BF6C6
10E61EE7DF2AEBFA
0023DCE01FD606E1
CB0226D613163105
1EDA423598EFDC1B
0B00FE06000A0E24
222F0000E8F320BE
F9E0D70D06CC75EF
C40E3AD7EE073CD4
11250E1C41FDDAD4
0002F405DDF717DC
C5100227EB0103E8
EAC91FF67FF1F41F
E3CACEC9002DF42D
053500000B64EBFC
0C90DEA2DBE9BF16
52B62A89B4DB4572
142B27D11CF90ADF
00AFBE259D4BE70B
551FF3CAFE0BDA65
1BAEE00ACE507F06
0000000000000000
0000000000000000
0000000000000000
0000000000000000
0000000000000000
0000000000000000
0000000000000000
0000000000000000
0000000000000000
0000000000000000
0000000000000000
0000000000000000
0000000000000000
0000000000000000
0000000000000000
0000000000000000
EE10103D0071EFD2
297E0000C2F8B32D
BAD9F4D5C1CE2914
6D8A56767F213122
0BC701CD8BE324E4
00430D000BAAE1BB
0F04596ADCD6E9C2
0065C5E63A8A6DFA
F031F70D0029F21B
29CA00000F162500
DC17FADC3945F51A
217F05392F201F7B
F8EBE6A118F5EC35
002226F2E4EBFB12
43E9F245E80EE0FA
D621F1ED113C252C
2B161618002F48F6
FD240000C5AB53E0
F5037C4781921EB5
120E32FE36E5E2F2
140E180EADF734BE
00D0DBF82DD2FD0D
67EB00F707E9740A
04383BF4FCDF35E4
0000000000000000
0000000000000000
0000000000000000
0000000000000000
0000000000000000
0000000000000000
0000000000000000
0000000000000000
21160F1B0010CED1
261A0000EB1204D8
BFD2593D95031BEF
FA25E9E3BC190FB5
EC371B10ADEEE1CB
00C4F1D7ED96CDC7
D95EFEED34C77FFD
29732A2331E61DD5
48FC200100B0D9D3
13D000000EE4FDCB
04D30335BCDC36FE
0FEFE2FBC1118331
FB8F04CA20C881CA
00E6D91902070210
1F99D4D62FD4AB32
100905F60168DB2F
1CD404BB00E1D9FE
D8E70000FFFA0F4B
DCD14512291BB09C
FEF06D36EBFE1C0D
6812E5367FF00435
0023D3491C960DFE
D531DDE90E3617C1
F9CC0D02D5A83CD4
2117120B003EAB1C
F8430000106E122C
0A1DFE0AFB10DC0E
FA1FEC13AF33D269
25F6E80BEF15E918
007FF309BFFDF2E5
FDCE2FD5FED01FFB
CE29F9ACF24709CE
F309097F00FD1218
FC5E000029D6E3DF
BF3CE82E00C5DD4F
EF20F623021B3CC1
F051022492E3069C
003F2D47FCE5E8FF
EE141330F9E052DE
363A772C291B0408
0000000000000000
0000000000000000
0000000000000000
0000000000000000
0000000000000000
0000000000000000
0000000000000000
0000000000000000
18FCEB160026D1EC
F7EF0000EEFBE5FB
04090DFDFFF7F608
EE1E09EBF2F70018
F2FAE616F9EA070B
000CEEE081F501E1
E1F410E8E50FF4E8
FD160802FC060713
27A6F8F300F56CCE
E8F6000030A3E41C
0E0764EB13A8C14F
18CBAE30211B2C81
D0110D06F316DDCE
006B66F82E15E13C
4500190A02BBD4B7
43D31A5C0430FBDB
FAEAF83000041581
02C60000F2F9F03F
E3F125C12C2E7828
39FDF20847E4EB9C
F31BD7F2FC3538F6
002E001406082BF2
E212330AD36F1FF3
E210F0E937DEEF20
2047E20C00ED1F6F
135B0000B9DBEFC0
D9CE33EBD9E5F80E
2716B7C9EC3D05ED
7F3CFC0531F7B1B7
00EFFE06C7F6DAE2
A02E06DFEDFB0B26
FBD65F07D96C0F35
3AF638F6004002B2
F1030000ED0EABFF
F8224116E016B801
30D486F8EE02B5E6
7FED2602CFE220C6
00D7EDEBF011E5E5
0C201CC9D6DFB24D
EB19E3244219EFD9
1D1F3231002F2205
03E30000E616BFCE
0FE77F14C8D510DB
29C409222E82CE1B
3EE12A073FEE3B38
00C9E419D3E50406
1B0513F11CE5000A
2F13C8E20C07DBE4
061C0818000C3208
10DD0000130C32BA
DEEFDFF621B00002
BE15D9ECDEF6E47F
DAC61510FF1636A6
00DDB2DF05BC06E9
4208FBF6D8103136
1E75D59AF086BF56
FDABDD0D00B2C49E
263B0000254681FA
BD44B41F1309B618
EB366FF825ACF1D3
27EBD95D44194A42
00FE877D1AD0DC19
2CEFDD4DD0362B24
2792E806FFD12FA5
0000000000000000
0000000000000000
0000000000000000
0000000000000000
0000000000000000
0000000000000000
0000000000000000
0000000000000000
401C290E00F1FDE1
10F60000EEBD1BFD
22CCD5051BD6F60F
3219F3E97FD2EC01
560702F9FC1D63D8
0007EA2A27340233
DD05F716E1EFE048
F9C39EFAFCCAC2FB
E31E1DF200C70110
F9E40000F01FDED6
CA5F05DE3C27103B
0EC04A8EF8D9F338
EF10FD40B781000F
000FF01A0D2CFBE7
343001162A281A42
E109EEFD4257FBA2
0DD519020090E8C7
3A0E00002DE3E0EE
DFA9F1EA1EF203DE
2E38D5B8EDEE061A
162C05D0FB202AF8
00EFD106070DE617
DEFE12FA131400B8
DCF149DE7F3AC4EF
06E20BD60081D8D1
451D0000E8B57BE1
BC39F93A33FACBF4
414A13BE66FDC3C8
06092EBDF56C1F15
0002E0DF39AED1DC
EE1E32F32A127DEF
D131EF363DD9DBDD
DF1EF30200BD3623
E21800004EE1BBD0
D8592BDB00914408
FC4F9D7FC013F7D8
1B0BED11EE04C4F8
00022B0D29B4ED3C
DED8FA2DE3F90FC7
02EBEEF8A7A552F1
19DA2FF6002D1122
11DA0000F7E7AF4F
21AA4FA6D9A3F527
2335D98E08062B81
7BBF3426C845EB70
00CD346E12F70A10
902430F606010F1A
FCB471FAB0372B1E
0000000000000000
0000000000000000
0000000000000000
0000000000000000
0000000000000000
0000000000000000
0000000000000000
0000000000000000
16EAD1D000F51704
0A7900002C4E9B5A
D821E9AA7F0B1812
FA302EF3F0F6CFDC
0DC9FC115011D246
00614939DCDFFF9C
961C1E4828E41BD9
D3B5F0DA11D0F30E
DEF4E8FB0081D612
C9BB00000EC03A48
2B21040D0DE5C7EB
E2E3C693EBD11F1E
4D09FECC1EC8F24F
0008422C1837071B
1303F1F8FA13E84D
E3D21740F5B650DB
0000000000000000
0000000000000000
0000000000000000
0000000000000000
0000000000000000
0000000000000000
0000000000000000
0000000000000000
0000000000000000
0000000000000000
0000000000000000
0000000000000000
0000000000000000
0000000000000000
0000000000000000
0000000000000000
23D9FCDC002EFE2D
0D150000D725EEF5
1E34E59C0530F506
05EB44F1D6F7E77F
F5FA2BEEF81B0706
0025D2B5F8EDF5DA
3AE60E0A3BF51D18
D636090ED9159ECF
05E7D80700B34228
4D300000DBCF28EB
FE070E1BD3C2BB0F
123DE8FAF7FCE0F0
F2F319F181F2D1BD
00EB321703EC11B7
CD2422221E790DD5
EC17F4E504DD0612
F247E61700184101
300C0000F0F818F1
0C26EDF9FB2FD226
EA19C2E4101FBE7F
EBD905C1B431E71F
0023321D0218E0F5
ECF81B2EEE36D722
09D84414CA10ED20
FFF0F1D100BC0F19
0FDD00006C1C0D6E
C1E3FE0309DA3BF8
53F2FAD9EAF37BEF
19F2E90D7FD9E618
00B9E5070B88F750
9407252007CB0AE3
0EDFBF20A443EDDE
0000000000000000
0000000000000000
0000000000000000
0000000000000000
0000000000000000
0000000000000000
0000000000000000
0000000000000000
0000000000000000
0000000000000000
0000000000000000
0000000000000000
0000000000000000
0000000000000000
0000000000000000
0000000000000000
FCEE2DF400FBFDDF
25BC0000040CA305
BFE922690B8E07AE
0CF2B85733EF18BF
088EF7DE701FF74F
0031E24ADCAD0BF9
A7FEF10226BDFE24
1DFB1511813921D2
102AE81500DE2728
D1BA0000CFB481D9
252138A5CECE0F1C
FDF1DE16203CC6EB
561B00E31B0ED3EF
003734F5F737EADF
BFEFFDCBEF01D5BB
FEAF69E82D321324
F8C21A0200BEED09
BBF20000E9F3EFA6
EBC4F229FDD2FA98
0118E126D37F1E52
A9E40EE92358DE4C
003503C71BCD35E5
5A0E0AD4EDEFE712
29CA0A30E1C8B65A
EFF91AFF00371ED4
13010000F3DCD80D
F0C7084CF2F3FBF0
2BEE0DFD220D2EDB
EE09E7FEAD0F0B1A
00D81DFB1FF906EB
DD3223E4DA1A0A44
FEFEFAE6C4D97F2E
00EB3BF400FA0FDB
F87F0000BC1FCDDF
D61D07B6E2F31626
1007DEDEC22E05C1
CB3AED56CBF3DDB9
0012C50F28C6FB00
12FB0739F521B6F3
1D023E2A1DF9021C
0000000000000000
0000000000000000
0000000000000000
0000000000000000
0000000000000000
0000000000000000
0000000000000000
0000000000000000
C61116DA00F316B8
D40F00000CD6D0B6
2EC1112681161EE7
FBBADD3123F02743
3D4DE814FE443CDC
000CA726E8E6E6D5
D40A024DBCE6EA26
F6FF4021FC962AEF
1BD5EBE300FD0EEF
152200002540C924
0EF802F5D1B92C12
EE1110C72F09BCAE
00EA0D247B6816BE
00F70057E7B40BF3
7FEBE2E5EC1B54E5
1E9804293206BA02
3AFE07CC00002B77
BF13000008EFDD74
F6F2C7F4BF07E71E
DD29818ED054E039
3EFB0A94CC01C9EE
00B0392F32D0EDB0
AF08F1F5DA1858BD
32D61EDADB1154F8
F014DEE100FA0425
F3BD0000F90E2912
24050707FE02016B
E51AFE8106F81533
21FDF7F7EF13AFEA
00DBFA0D02F708EF
2F09DD0336471C2B
E6F1EF08D3F9D819
13E4200700E808D2
2A470000BBB45CCD
CEB527628C8110E7
060A49DF6505D2CB
13D2F6FAAA2E37B0
00A4FE115E0110C8
F53B31F205EB2A28
DE101F06F1CC2014
F7DBF31C00E0C7FC
3D3F00000602FFEB
1E332640DF7FEB0C
2FF10CFB041202B8
FD59061ACFF218D0
00DB2A1E6821F4F7
E517279FFBF451D8
081002EF4AE4459C
1AF300FF00B1ECEC
FC0D0000E2082CF3
10C5400DC7E8F2C4
635BEB040DFD5403
71EC2D314AE4E70F
0004F0177F1202FB
952325E600FCEDF3
C60444D1F2E4E049
FAF30C2B00E709F5
24BF0000E3E3CD1F
2AEAC4F41DEEDB09
051E10DD7F09F6E2
EDECCC1513E3F50C
00D114EBE62AFBF4
2006BCFD052F7809
062DA6C51318FCE1
F5D12F6C0032E72E
305D0000E981D8C6
10351D1D222046BB
F1CA2D32E8D3F1A3
48F5F31203E1E625
0047242BDBD633B8
E21430F330D3279C
21BEF2BDDD29EEF5
23F31B0000D4D434
F54D000018E939C9
DEEAC804D9D3D2FE
097F0B08BA11CB2E
3144250BE6F316CB
00A51DEFF9E50DC4
EF28EC261BC47FEE
EB76053E2CF0F8EC
E1D1BDEF00CC21BF
0DF5000010EFAA2C
C52DEAAA3CEA7939
2D2A949F6E8F174D
1856F6EA8D55106C
00B3182D28370518
23FAED580C330734
E993C5105D81AFF4
1AE64DDD00E51CF1
D30D000001A50C29
5FE8E456BE170DB6
03D149E42FE0C94B
BB23FCD511BA2C11
00E8C900CE0A1AE7
7F2BE2A4FB21D9E5
12CBF8DF5DD8EB31
E3E4111A001E0AF0
009C0000EDF42CEF
F8051F53BEEBF322
EC17E4A9DCCF0C1C
EEDECFE2ADFF03CC
00C1D01FBD2CCCBB
6CF4DCE2E94FD87F
FF42C172D903E309
FB1C2DD100580504
3FB90000E4B4BE02
EBE54F7FE1CA0413
7D04C22020E0BFDB
D4C0F9E2AC08374D
008C2BD547CF0010
A60DE79D2A01354C
CE60CE329005380B
02E3354200F4E7B7
25060000DA121CDB
D043F121CB08DCB0
F6E3F7C71BEC2CF9
2AEDF3216FFCFB0E
0004811A2CFA02C3
A6FB2011FC23000C
F9D6070A106619CC
E5E7EDD200C7161A
F7060000E5C52DD4
E7DC03E3C1BADAE4
CB27FFC91A0C250D
4A50401A99092CFC
00C3A5443313E706
D8EA1007013062F5
07B8320A0A81000F
F30EE94000F1E8D6
F0BD0000CAF6A202
7F24D73BD5421B41
F9D1D5C00F2DB817
4D201D45D36D25A7
00F60B09EA43F995
0F2C43EFF72ECB39
C0DAD9F83AE8CB25
