1D0FD10E07599489
7F81AFF7F07F8164
C7C719F3030DFFEC
6CF0D67972D80014
02FCC398F5C1EAA1
FD7FFE9E81E2ED59
097FB5C2CDEF7FEC
2AA07FC106BC07C4
81120817DF33AFD1
CB8131D9273081E4
81FFAA7FE3A1C751
16039B12EAC1A92E
DAFD45E50B8193EB
810F8FE526B07FDA
1EDA8981F0C97F8B
BABC81EEE4119C3B
35DC9C11A81C7FE6
74B9D9C530F9C26B
C9F64FFCF40AD5AE
D00FCF6D0622DD00
415AD9033F81D120
FB001981A6FCA106
EEDA1029D381AAD4
D7E61AC08197EFE6
9D4EDFF30E8C217F
05C5D0E0B7815501
252B81147FECCFB3
9BFCB50626E23901
96C6F3188EFE0BD1
3DF3E73949B763AD
7F7FF2A481435881
0BD7ECF19B3E8D18
16CC937FA8B54181
7ECE814330098FC9
057F48EF813F1127
32E6E8D7716DF612
C2068EEEEDB17236
EDEBC7F2BE0DC1BD
54B0BBDFD1C217F2
C407C7B508B007BB
B9402701F664CF21
C20FCD61EB45E905
D803075EEA2F01C5
DBF4CA0754B133A8
8181C8B2260827CD
92064BDDFC853CEF
315BA26CF47F42B1
EF18CCF3D2B3E781
AD7F7F09C647BECD
CF2D0DBC14FD2556
F7FEF50CB926F72A
AC0715E937F2141E
087FD584CBC4DD81
25E8A08B697FB643
D23CA99FF208D3B4
7F0000A80381E7B7
26D8FAF3F442A3CF
CCCB7FC1475925E3
9D041820407FB67F
E6DB81D00281E519
47F4B7B67FA5C415
EEE405D9FC356008
1C0B81C973DDD434
F3814B7F3943AF3B
EDFA0CEA81FB4403
E7BC62D8DEF2EC1E
A0F47FEFCDCD9ABF
81F87FA1CBEBE5F4
4D788132F2CCCFD5
F6F381F8C32E787F
81D7CECEC91C1509
026DFBD2C5FCBED8
560CF69107CA026C
DC190FB2B7C34899
BEEF1D1E4FFA7FDA
810DA5DE7FA45AF2
99CA5F7F13F3B35C
79FE197F817FC19A
C1E8840A3AE289DD
2B5D54060045E6CD
1A9A174FE9D072F8
08AA0531030896B8
00010DE59241E1CB
D9FF370CD122810E
C726AFECE9ED2B52
09F51A2701E58C1F
8CD6A793990D1F7F
95192E8112D5D7BF
17052909AAAC810C
B1F6F9ED7E01C7DA
017FFFF5BBF8BBEB
1701DEFF20ED0E09
93ADB5E5DBDAB1D3
B9F917F447E4BB22
ECEFC35AB3FCEDDB
C33BF65B7FC67FE7
AB2F2ADE90FDE8A9
BF289BB37F0A14BD
EE1F29C51D6B112A
6981FF817FCF097F
CB79C78181440044
7F500DBC733EA2EF
33FA3C6781B8BCD1
6635EA2B840C8181
2CDAAF031081AFC9
81F01C62813929E4
E51A54CCAA510C54
1C818E1EBFC1E981
F0DADCD0B60AFE7F
E0E57BB816DC47E7
6D0CDD85351D6A6E
81C4E221F08135E7
99BC76EBC081FE84
90E1BBEADB0B2481
81CE7681ECF3B67F
E4F855CC9F81A31D
6B6C0DC8D150810B
FD0187EC5F2F7F13
4DFF9A7FB4612EF5
A2FC0764C56900E2
187F8181C771CF16
BDF01B7FDA90C99E
BB0535E69BD1DAD1
0EE5B757ABCF7FCF
E3947BF735C68165
2B81FAEFCB22E581
1ACF2ED2F5B64C52
E81CF5EEC1DBEBDF
81D2160ECC0646C4
DEEECD7FCDF3CABB
0ACF4981F37F81D6
4F05E47EEEB5AA4D
7F0AF803ADE9C4FF
179A07EF0ED5F1FA
28FD815D8636D950
C47F2A26D02508D0
28410AF181FE0CFC
B8DC0FD9629FE581
DF264F0EDA9BC8EF
49F1C57FC0E8175C
FD8781229BFCA2E7
C1F3813730CA14BE
3A07F9CFD6986D27
FE19E30C23E7C922
