0000000000000000
0000000000000000
0000000000000000
0000000000000000
0000000000000000
0000000000000000
0000000000000000
0000000000000000
0000000000000000
0000000000000000
0000000000000000
0000000000000000
0000000000000000
0000000000000000
0000000000000000
0000000000000000
380B97CAE63FF4FC
1F2724B6F496EA1A
00DBDB00001C00EC
B6003128564200FA
EFC000060B1FE9D8
2EFB000023F6125D
08080040DD91ED46
E0B50C1500C50033
511839000002FF13
3700AEDE3A045400
0037BBEC5D0EFBEE
F100DC131E09181B
00CA0217D70000C5
08001406D4390900
FD1F07FB343EBE11
FD05CE5ECB7F09BF
16063CA91E212CFD
37282FCF1A00EF3B
00D6EC00000F00EF
21001A2ED9470031
00CE1BFCD82D17FF
CB240000CD30EFF3
C43100320010FE1D
0107142600340019
D30CFC0000FD001B
0500CD0723CAD800
001D4524F431E899
FB002C42E0628112
00C7F4D316000044
E100F7ABF81AE000
1509EE12021BD617
01BE35CAEFD208C1
44EB1300251852D6
C2DF09ED10C3E4FE
00FAEB0000BA0012
140085DAFD010034
0DEEE804EFD1C92A
C2BB00002E083B12
F2EA00320BB419F6
28E439DE00EB00DF
76F0C30000FA0022
EE002EF181C81900
004645FCE5D3F8FA
E600F11EE96E36F6
0002C1C10A0000B5
FA0007FEFFE14C00
F7EC73D31A180618
FEB4DD5F5409090E
02A912082D46F91C
28D8062F11C40F1E
00EBD70000E700E2
F0002510F20800ED
2D24180602100108
9DF80000EAE7FA0F
F5D200EFF41AF3D7
32E630FB00EE0003
1DCC1F0000210019
F200B611F3E0E800
009A091A1EEDFCCB
DC0021C1005233F4
00FEECA6D3000051
2000C2E401042D00
F042E80B3ADADE40
FFE07F52220D0A11
0000000000000000
0000000000000000
0000000000000000
0000000000000000
0000000000000000
0000000000000000
0000000000000000
0000000000000000
0000000000000000
0000000000000000
0000000000000000
0000000000000000
0000000000000000
0000000000000000
0000000000000000
0000000000000000
0E0A74D62BF1950B
1F29FB1C81F92C15
00FE2F0000120023
C000F1AE4B0800F2
D28614FBFBEC2208
AF21000036C915D4
45E300B99F0B20B7
1CA4FFF100E90089
5BC8040000ED004A
D500E5A539F14C00
0017D8CAC3503BA7
E0008E9152C8B67F
0001084418000043
2300624F3EF6D200
32DDECE927F6EEF0
034E1B5A0FC3073E
0F2424ED18F7D628
2A09FCEA34D7F92B
00FCE30000FC002B
F3000DEF1CDC0041
F30A33FE042801D3
3BD7000037300036
1B0700052D67EB33
1004E93E001C005C
DFE63400003801A0
EC00DD22DD16B000
00211ADAEDDFD91C
220043E0DB180F10
0044170B260000D8
DA002C05FBD7FE00
26E72E01DC15E61D
020BEFC80C1A0581
F51E1ACB502B02E4
21461883EBF3DC11
00FE0400003D0006
F900B3FE121500D1
F53A18030FF9E319
BD29000019C6FEE4
FD0F0028962D17E7
EC98A4F900E500CC
DFBD060000350133
1B00AD040FCDDD00
00E4DD1F0FD9CFFE
FD00DDE8F47FE9E5
00B52AFA28000004
E300F4F8FDE64A00
0ACAFAF8C4143FBD
FEC9C6094817FA03
3DFCE23D01E5FF5F
FA1B21E1E4EAFAEC
001AB40000220031
BC00EA0112B000E3
DAF8F300E0C9D632
81EC00000BE9FEDB
451200104FF1FAAD
DDF7F101000100F7
EEF40B0000F2FF02
2200EBF153E21000
00B7BFE630E3FB0B
430007F833D461F1
0030EB0AEE0000F9
F5002EF90D00C900
540A1107AECAFD23
FD2611E53F19F9D7
0000000000000000
0000000000000000
0000000000000000
0000000000000000
0000000000000000
0000000000000000
0000000000000000
0000000000000000
0000000000000000
0000000000000000
0000000000000000
0000000000000000
0000000000000000
0000000000000000
0000000000000000
0000000000000000
E63030C24032A2FE
4F6749CEEBDDB812
001B130000F70034
CC00F5ED053700C6
A8A7DAFEF9E2260B
C2C7000020BE2CB3
022F001EC8442AE9
E974F4EB00AF00D7
48CE5300001BFF0E
2F0081FB392B3200
00C8D401EE1D1742
F200A6BC4109EDDF
00E3210C3300000F
1D00FA4C1B1C1600
EB491F36DEC715E7
00781BF6D3DCFD1F
0000000000000000
0000000000000000
0000000000000000
0000000000000000
0000000000000000
0000000000000000
0000000000000000
0000000000000000
0000000000000000
0000000000000000
0000000000000000
0000000000000000
0000000000000000
0000000000000000
0000000000000000
0000000000000000
0000000000000000
0000000000000000
0000000000000000
0000000000000000
0000000000000000
0000000000000000
0000000000000000
0000000000000000
0000000000000000
0000000000000000
0000000000000000
0000000000000000
0000000000000000
0000000000000000
0000000000000000
0000000000000000
0000000000000000
0000000000000000
0000000000000000
0000000000000000
0000000000000000
0000000000000000
0000000000000000
0000000000000000
0000000000000000
0000000000000000
0000000000000000
0000000000000000
0000000000000000
0000000000000000
0000000000000000
0000000000000000
F3F019C607F32D26
DF1D2114091E21F1
00F4E60000CE0012
E300C22ED9E300F6
1A0202F90332E892
1EF6000013040046
113500312407F3C2
F82A322D001400F8
3609C80000E00014
FD007F0B21FF3800
00E5E00D003A16F4
4300100A141DC228
0009F8EDEE0000E1
0E0041F71F1C1200
F3D714D820EE0A04
FEB21BF205FD07F0
220ED700F92FD3EA
FA27FFDBFA4A100A
00EC4E0000490001
3F002AEB17F900FE
B930F402053F120B
38050000FAECC9E1
33CA000E7FEB0701
EBE9D60700F40013
4513F3000022013F
2C00F9E6F7F93B00
000E0FEDD92BFA14
D800B92835FA040F
00D810F3DC0000DE
F200E60C27E24300
FC05D523F811FFFC
020B010408F60831
0000000000000000
0000000000000000
0000000000000000
0000000000000000
0000000000000000
0000000000000000
0000000000000000
0000000000000000
0000000000000000
0000000000000000
0000000000000000
0000000000000000
0000000000000000
0000000000000000
0000000000000000
0000000000000000
0000000000000000
0000000000000000
0000000000000000
0000000000000000
0000000000000000
0000000000000000
0000000000000000
0000000000000000
0000000000000000
0000000000000000
0000000000000000
0000000000000000
0000000000000000
0000000000000000
0000000000000000
0000000000000000
FFD43421FEE2E52D
297F550F02D3FFFD
00030C0000EF000A
E100016AEB090017
D1CBC3FC1209F344
DDDD0000E81528D1
E2C700FDBD25FCBB
1518EC0F001B00F9
06F2BE0000E3012D
3D00E2E033393200
00DFAC433B3818D5
1700FF2D27C8DEF0
003A10FD0D0000CD
2A002949291B2500
0415F1013FEB115A
FEBA7D14EBE21116
0000000000000000
0000000000000000
0000000000000000
0000000000000000
0000000000000000
0000000000000000
0000000000000000
0000000000000000
0000000000000000
0000000000000000
0000000000000000
0000000000000000
0000000000000000
0000000000000000
0000000000000000
0000000000000000
101EAF2BD30E1C27
48E63706CE39D5EF
00E41B0000A700CC
D7000E1508070094
E5A8F700379D08F5
1FFD0000DEF802C8
E92600122BC8FDFA
E8EE09D80039003E
1DBC040000D1FFF5
27002A0C09F40900
00E5D9F5061D07CC
D3007FC1F6D9F0DA
0077DBFDF30000C5
F400B0DFD7FAA500
1CD1D100FCC2A7FC
FECC05F1F42301A9
0000000000000000
0000000000000000
0000000000000000
0000000000000000
0000000000000000
0000000000000000
0000000000000000
0000000000000000
0000000000000000
0000000000000000
0000000000000000
0000000000000000
0000000000000000
0000000000000000
0000000000000000
0000000000000000
0000000000000000
0000000000000000
0000000000000000
0000000000000000
0000000000000000
0000000000000000
0000000000000000
0000000000000000
0000000000000000
0000000000000000
0000000000000000
0000000000000000
0000000000000000
0000000000000000
0000000000000000
0000000000000000
0000000000000000
0000000000000000
0000000000000000
0000000000000000
0000000000000000
0000000000000000
0000000000000000
0000000000000000
0000000000000000
0000000000000000
0000000000000000
0000000000000000
0000000000000000
0000000000000000
0000000000000000
0000000000000000
24362746AEFE195B
D12A1FB4D0FCFFEC
00D9D600002E0028
9F0022EFF80F0087
FA15F5FEDAC4DB11
07590000E5D219A9
F12700F086DED4FA
D4E9D6F9000400BF
F809530000DF00F0
9A0012B71BD9BB00
003E09D5F103BE58
7F00E9F4E92A0F14
00C542FA14000005
EF00FC110603B100
373A2CEBE2FCFB3E
00ABC401DADCFFDB
0000000000000000
0000000000000000
0000000000000000
0000000000000000
0000000000000000
0000000000000000
0000000000000000
0000000000000000
0000000000000000
0000000000000000
0000000000000000
0000000000000000
0000000000000000
0000000000000000
0000000000000000
0000000000000000
0000000000000000
0000000000000000
0000000000000000
0000000000000000
0000000000000000
0000000000000000
0000000000000000
0000000000000000
0000000000000000
0000000000000000
0000000000000000
0000000000000000
0000000000000000
0000000000000000
0000000000000000
0000000000000000
0000000000000000
0000000000000000
0000000000000000
0000000000000000
0000000000000000
0000000000000000
0000000000000000
0000000000000000
0000000000000000
0000000000000000
0000000000000000
0000000000000000
0000000000000000
0000000000000000
0000000000000000
0000000000000000
0000000000000000
0000000000000000
0000000000000000
0000000000000000
0000000000000000
0000000000000000
0000000000000000
0000000000000000
0000000000000000
0000000000000000
0000000000000000
0000000000000000
0000000000000000
0000000000000000
0000000000000000
0000000000000000
10FCF4D83920F4CB
163214E529E6F1F7
00E0100000FE00F8
CD0003C303F90006
2C132EFF2BEFDEFF
CBE90000032108CF
1DFF00240EC6200F
D508DCC400EB0018
051309000024FF13
2400F9D8D8140500
0061FE18DD21E1FA
FA000811020802D5
0081FFDDF7000006
1500AEF8F5F5FC00
EBF13407BFE4C8F7
FDEAFEE00CEBFD14
CDE50C21FCF5FCF8
10DC40EDFF042F42
00130A0000DB00F6
2900BBED1E000015
173EDF01403FF706
010200007FF11D00
FFF1000F21FE1421
2EBB293B001C005F
DCFD190000F300FD
28004BDC08513E00
0004E8390C0D0815
2500BF0A04CEDB1E
00E4E843AC00005D
F00004FC31F94E00
0AF2DC48F8F31E0A
00484628433FFFDB
73F11DFAD8EED67F
3DB3322F0655F2F8
00E5DD0000F20060
090063E6C51B008F
9EF10400351240FD
D5EE0000EABEFEE2
1E0A00D3AC582DD6
D21CC544001D0005
109F680000F10173
A000CDFA23274D00
002BD80C37DA3E97
EB00EF904EC0BB21
00481C5D1F0000F0
33002C4622694F00
2A90BF2717A5AB38
042C2A03D5FE031D
09D9E7C137EAFE17
101335D5EC0A31F9
00DC810000F4000A
2F00E526060B0023
62150302DE14C7C9
151000001CFC19F8
1E1A00171017E424
D2FDD1D400B3001C
CE0AF80000DDFFFE
15002923C8DA0200
0000ADE1D7CB33F8
F100CEC5E7D3E31C
00CB0A0FDF00003E
55001F5C3B08DB00
D0CD01F13123F9FC
FCD6F4042E18FF4D
1636E6FFDC030687
6CE24DD61B0BD94A
0060600000130002
CF0023F5C2B2001D
F3D1040B0E0CEF1E
C3120000C9CB43EF
F10B0003C91DED0A
CE1924E6002B00DE
F5D9DD0000DF0043
4500E1F305055A00
0076D27FE41E0A47
2C0019622CC50801
00BC00D41300000C
2300D525FF1F6000
BB4CF00CBDB4F2DE
FEF855E3C546F2F3
2EEEF4B52C203616
133116D20EC861C1
00A7D90000F300BE
47007CFBEE270042
EBD92D011C4CEA54
F12E0000D74A0A11
2A0100FDD6EBE5AF
C26AE936006C0044
10DEEC0000FE02A5
DE001B1DD3215400
00437FDE50D2F3DA
0700F026B43BC2C6
0001100FCC000010
0400E516BCC0F500
54E8072AE94FD946
02D763AF17E504E3
0000000000000000
0000000000000000
0000000000000000
0000000000000000
0000000000000000
0000000000000000
0000000000000000
0000000000000000
0000000000000000
0000000000000000
0000000000000000
0000000000000000
0000000000000000
0000000000000000
0000000000000000
0000000000000000
F51347FBF77F09E8
1537070C42DB253E
0062420000F900E7
1600E32436170025
FCC5EBFC12F464DA
ED180000221133C8
FDFB0017082EF142
1E04FF4700D700E7
78E7280000F2FF5E
230023FFE7F30800
00D8DF3AD1FC06CC
06002DD2413CF855
0046F1360C0000DD
0600F7FED4D9FC00
2F151FD41D3AFF11
0543F75F38F9F812
7F171259FF06DF7B
DCE7F247E001C032
005A51000018000A
920025F13D30002A
DABF1303E4DA4C02
A2BA0000F6130AD3
40E900F71FC524DC
E8E219C100F900B7
3FAB350000120026
1300E39D1145E600
00BE0E1E6AFAFFFB
34009E782BCA2927
0004F0D74A0000F2
0B0006B31E09EE00
344AB8E5E7EE34D9
FFEBF31CD70201DC
E066FF7FDCF8E9E7
22FA04D723254CEB
0025C50000E800B5
D600D4EF23FA00A8
00080708E73820B3
1BFC00000B09E387
A1EF00E926B029EA
21042BD300EA0000
0BEBF700000AFDF3
D2002D3CF113F600
002547FE03330AD3
FF0013DAD40E1BDA
0020C6B1E40000F8
EE00D00BBFE5EA00
102B2230CFEA18FA
F3FD181AD300F91B
0000000000000000
0000000000000000
0000000000000000
0000000000000000
0000000000000000
0000000000000000
0000000000000000
0000000000000000
0000000000000000
0000000000000000
0000000000000000
0000000000000000
0000000000000000
0000000000000000
0000000000000000
0000000000000000
C6F629BE1AFEAC28
F53B0DA6F0E3EC37
000C680000DE00FB
2600C1A21DFD00AC
190044001CD3F3ED
DFE90000D7ECF636
B34B00B2811E031B
2F16F6C300100032
D90B97000011002B
9E000826D6E70800
00ADFD32E1441BDE
F500F2474FD010EA
00F8313B340000D3
10001E9A593EAB00
DD3EE6ABF0C03DE2
FCFCF4B6173201E7
0000000000000000
0000000000000000
0000000000000000
0000000000000000
0000000000000000
0000000000000000
0000000000000000
0000000000000000
0000000000000000
0000000000000000
0000000000000000
0000000000000000
0000000000000000
0000000000000000
0000000000000000
0000000000000000
CB1FD1D9D41FF7E7
55DF0AEE09DB042C
001F0800002D001D
B500E7D6F0E100F6
DDCDD3042C01EFB4
29E200003DE054D4
18270056F70602DD
D0CEE9FE00CB00F3
69F8F70000ED0004
6B00B4D0E1064600
008127B3CFF6249D
C20040DD42FBDDEF
0012F133220000DF
1C00140DFF0CD400
DE2C13FF3DFB40E2
0014EF7033E6FE22
0000000000000000
0000000000000000
0000000000000000
0000000000000000
0000000000000000
0000000000000000
0000000000000000
0000000000000000
0000000000000000
0000000000000000
0000000000000000
0000000000000000
0000000000000000
0000000000000000
0000000000000000
0000000000000000
0A2027F50AE5B40C
2C16DFCBEB070B3B
003B120000350042
E400C8063EEF00A7
E6AD1004EE0D2CB8
D3E00000DCD4E1E3
E2C100F03C13C6D2
D5DC0AD9000B00B1
B6FE4A0000EAFF7F
0E00B53608F70100
004BD303BCF6350A
1A00C9FDE3FC0D33
0014F6DBF4000005
FB00FE182A1F1900
2632F1F4E224EE01
041AFE00F004F9F4
FA1333E7F1CBFF15
0D13F91C210EE3FF
00FD180000E600EA
0F0008FE2D0D00FF
3709FDFB23D4EF3B
19E8000014280D1A
C0EA00E9D801F10B
1DFB070B00E0000B
FEDA0D000012FFE0
0500E717DB06E100
007F01DEFC01F913
F4002FE036E61702
001F1DE90300000A
EA001F25FC1CD800
F81014F90016EEEF
FF09F7EF1E27FF1A
0000000000000000
0000000000000000
0000000000000000
0000000000000000
0000000000000000
0000000000000000
0000000000000000
0000000000000000
0000000000000000
0000000000000000
0000000000000000
0000000000000000
0000000000000000
0000000000000000
0000000000000000
0000000000000000
CBD2F312EE42FD0F
2B7FFB23D630A2C1
00CC120000320026
E400F7B71B050048
30EA060A92F11ADB
4C63000044CD0BDE
40EE0043500ED3E3
1FE3C75900140009
78EBE10000D000E4
E2002114F6390D00
00376702DCCB2123
0000003B2F0021AC
003BEF01E80000D2
2D00E20FAFBD3C00
5C8BEAEC0E1ACFFA
FF3BFECF12E7F67E
0000000000000000
0000000000000000
0000000000000000
0000000000000000
0000000000000000
0000000000000000
0000000000000000
0000000000000000
0000000000000000
0000000000000000
0000000000000000
0000000000000000
0000000000000000
0000000000000000
0000000000000000
0000000000000000
D021FB30483305D4
010125682B8EE40D
0086980000EF00D6
2E00A71E30F800D4
3C2D0EFAC036D905
AD050000E2DD020D
CAE200F884F4D602
F1DE25C100E7002E
C7341D00002E01BA
06000A3EC4C4E600
00370075CDE9130F
C000191E25223915
00B43206DF00007F
DF000CDE0FE13500
B0E0EF161425FE4D
021A13EC1ED502E2
0000000000000000
0000000000000000
0000000000000000
0000000000000000
0000000000000000
0000000000000000
0000000000000000
0000000000000000
0000000000000000
0000000000000000
0000000000000000
0000000000000000
0000000000000000
0000000000000000
0000000000000000
0000000000000000
0000000000000000
0000000000000000
0000000000000000
0000000000000000
0000000000000000
0000000000000000
0000000000000000
0000000000000000
0000000000000000
0000000000000000
0000000000000000
0000000000000000
0000000000000000
0000000000000000
0000000000000000
0000000000000000
CD1DED3F81F203FA
E4F22A1C27C8F00C
00042C00002500FC
04001F4123FE002B
ED0BE6F5171FF9FB
E8E3000004161939
E0E500CA480B0212
F633C608003000F9
0DD7120000E200F9
F500340A12381900
009BFEE7D6E6E707
3000D21709ADACEA
000EBB08C20000CB
F2000C4817DC6300
F4FBF710F4C52A0C
FD171FF1B5A8F7EC
FE1B7CC1E805D635
D41CD3C0143BDDEE
009DF800005500E1
DF00FBE3F32400E2
CFC2FBF20A1FD5F3
7846000052B8D1C2
B14B00E530B0E900
53FABBED003900F6
0CF5EC00001A0038
290024ABC0BB0800
0017D3B211750AC3
DF00007FCF59D0EA
0025FDB6EF0000FA
E100161A24EBD500
538BDED2533B021C
042FE30CBF9EFD42
0000000000000000
0000000000000000
0000000000000000
0000000000000000
0000000000000000
0000000000000000
0000000000000000
0000000000000000
0000000000000000
0000000000000000
0000000000000000
0000000000000000
0000000000000000
0000000000000000
0000000000000000
0000000000000000
0000000000000000
0000000000000000
0000000000000000
0000000000000000
0000000000000000
0000000000000000
0000000000000000
0000000000000000
0000000000000000
0000000000000000
0000000000000000
0000000000000000
0000000000000000
0000000000000000
0000000000000000
0000000000000000
0000000000000000
0000000000000000
0000000000000000
0000000000000000
0000000000000000
0000000000000000
0000000000000000
0000000000000000
0000000000000000
0000000000000000
0000000000000000
0000000000000000
0000000000000000
0000000000000000
0000000000000000
0000000000000000
279FFAECDDD6F1F2
C5D8EFB70EC7175B
00F6640000EA00A7
EC003DEDB35B0049
130017FF11E32218
FDE00000DD7F24C0
0BCD002036FC1C35
D3CF2E1800DE00D9
F023E000000EFF14
FA00A304F8450600
00CEC1103CFB052E
1800FA6EF51FB106
00EACCF0E50000DB
F20002FB43F21100
23D0F9EC1A19EE09
050114BBD35002F8
0000000000000000
0000000000000000
0000000000000000
0000000000000000
0000000000000000
0000000000000000
0000000000000000
0000000000000000
0000000000000000
0000000000000000
0000000000000000
0000000000000000
0000000000000000
0000000000000000
0000000000000000
0000000000000000
2EF221D9C8B512F3
D9572E222E236AE5
001CE800002F002D
FC007F42F4FD00F0
D6FFFC0561711500
F8DC0000FDBF2703
10DF00CF09E3CAB9
3ECF0D4400160019
F20B0C00001001EC
D8001E231448FF00
0036BEDE59652BFD
FB000FC6D7EBDDC2
000FF9EFEF000015
100009331E602100
2401FBF726F0003E
02F12050EBE805F4
46EC241306E4E666
3FBB00FF02D80335
00FC990000BF00ED
0C003B22C3090038
A3FAF0FD74D703C7
AAEB00000630ECCA
2DC100051CD8F60D
98F455CA00FA0010
D9DB3E0000E401AE
7600F7B1233B0500
0010BDF63DF61AF5
F7000A1BE6F8CC0B
00DDFD23F10000D4
EE00FC0F38EE3500
3F0AD8142CE00910
02D7EAFEE67FFF29
0000000000000000
0000000000000000
0000000000000000
0000000000000000
0000000000000000
0000000000000000
0000000000000000
0000000000000000
0000000000000000
0000000000000000
0000000000000000
0000000000000000
0000000000000000
0000000000000000
0000000000000000
0000000000000000
0000000000000000
0000000000000000
0000000000000000
0000000000000000
0000000000000000
0000000000000000
0000000000000000
0000000000000000
0000000000000000
0000000000000000
0000000000000000
0000000000000000
0000000000000000
0000000000000000
0000000000000000
0000000000000000
EEA9175C278AEB11
D7F70557FB05CDC4
004C580000A800D6
E000D6052A100060
C7E4F30BBE0E07E3
D21C000037111435
4BB600E0E7F9F820
B77FE9FA00390019
08BF1E00001600FE
DC00361DEBEEF200
00BD1BF45CBFFFF4
2E00F34C35A4DA1B
00C307FBD3000089
EB00D101272C2700
1DE3C14402C74612
FE0E3DD3E61601EB
0000000000000000
0000000000000000
0000000000000000
0000000000000000
0000000000000000
0000000000000000
0000000000000000
0000000000000000
0000000000000000
0000000000000000
0000000000000000
0000000000000000
0000000000000000
0000000000000000
0000000000000000
0000000000000000
2CA923F12CE2FE0C
FE28FEF73DFB1C4E
001B5100006500C8
0500F0D704FE00FB
49FB6704EC7010D2
39040000F9E1D418
1E9D00055837E196
F9BF9AFA0011001E
BC53F90000DEFF03
0C00940009F8F200
00F50926150CEB18
23000E740F7FE7A3
00E54CCF3400006A
0E0058C2A9DFF900
D658F25D1B51DC25
0AC82CEF13C80ECD
CD18FD25D9FCEB13
FBECEF48E8F1ED11
00F2EE0000E6007F
DA003200692000E1
FD26FB00001A03EF
A9EE0000EBDD2E0C
0CF000D8E202F153
09E90CD7000300E2
0DC80D00001000F8
E100FB01D11F1100
0001E80EE81D27CA
FC00A7E1D8CFEF08
00DAFAD9FE00001D
180007FC0FED0700
EBECDFE9571871F0
00E92FE8FF21FD01
2631F916204C33ED
BB0CF33EFF1517E7
004AC100001D0008
2200252BE4D400CF
4DFEEBFEF4DB3112
34F600002539DF1B
CA1C0014091229F0
4105422700360010
CDFE2400003BFEE8
EC00AECB34287F00
00E211FB03F51213
E40030FE2D1428C5
00DADDF8F6000030
4100FA22F7F43400
254D0E320B14D705
FE1909F72FF9022B
0000000000000000
0000000000000000
0000000000000000
0000000000000000
0000000000000000
0000000000000000
0000000000000000
0000000000000000
0000000000000000
0000000000000000
0000000000000000
0000000000000000
0000000000000000
0000000000000000
0000000000000000
0000000000000000
E70C32D99BF10914
1310FA08F6FA08BA
0004FB0000C400FB
D6003441152700E4
DA12CC00F41AF533
2353000041ED3EFB
30A500F7D5F4F2C7
23D9B20500DB00DE
3BFF960000FD00C9
F10023E530273F00
003EBE29413115F9
210003F6D4C72800
0006DDE6C50000CC
2200FD1509202300
1A1FF1F27F3DD52F
F525085512E2FC12
0000000000000000
0000000000000000
0000000000000000
0000000000000000
0000000000000000
0000000000000000
0000000000000000
0000000000000000
0000000000000000
0000000000000000
0000000000000000
0000000000000000
0000000000000000
0000000000000000
0000000000000000
0000000000000000
0000000000000000
0000000000000000
0000000000000000
0000000000000000
0000000000000000
0000000000000000
0000000000000000
0000000000000000
0000000000000000
0000000000000000
0000000000000000
0000000000000000
0000000000000000
0000000000000000
0000000000000000
0000000000000000
0000000000000000
0000000000000000
0000000000000000
0000000000000000
0000000000000000
0000000000000000
0000000000000000
0000000000000000
0000000000000000
0000000000000000
0000000000000000
0000000000000000
0000000000000000
0000000000000000
0000000000000000
0000000000000000
0000000000000000
0000000000000000
0000000000000000
0000000000000000
0000000000000000
0000000000000000
0000000000000000
0000000000000000
0000000000000000
0000000000000000
0000000000000000
0000000000000000
0000000000000000
0000000000000000
0000000000000000
0000000000000000
0000000000000000
0000000000000000
0000000000000000
0000000000000000
0000000000000000
0000000000000000
0000000000000000
0000000000000000
0000000000000000
0000000000000000
0000000000000000
0000000000000000
0000000000000000
0000000000000000
0000000000000000
0000000000000000
0000000000000000
0000000000000000
0000000000000000
0000000000000000
0000000000000000
0000000000000000
0000000000000000
0000000000000000
0000000000000000
0000000000000000
0000000000000000
0000000000000000
0000000000000000
0000000000000000
0000000000000000
0000000000000000
0000000000000000
0000000000000000
0000000000000000
0000000000000000
0000000000000000
0000000000000000
0000000000000000
0000000000000000
0000000000000000
0000000000000000
0000000000000000
0000000000000000
0000000000000000
0000000000000000
0000000000000000
0000000000000000
9B2F9AD981EE3AB2
0C04112ED624DDC4
0006FF0000B60049
DE00653222AE00C5
3FF38603CE2B3FD0
E36B000010A441E8
46A10014EEDE2F16
EBC6AFD300EF00F4
5702BA0000EB0026
060054F2124B1600
00351E09330BEB2D
240021B99B03C0E8
00FAF600250000CE
FE00D41705F20500
23CD27083C096527
FEEC1A752EF2F744
0000000000000000
0000000000000000
0000000000000000
0000000000000000
0000000000000000
0000000000000000
0000000000000000
0000000000000000
0000000000000000
0000000000000000
0000000000000000
0000000000000000
0000000000000000
0000000000000000
0000000000000000
0000000000000000
64FC1D38CF182E3F
C8DCF2B307E1CB58
009BDB00004500D7
DB00A0A55B4E00DC
DB847100CB14F110
F96E0000DF15EB37
F79F00D7810B3EF5
1106FDA700BF00FC
080A000000120051
D9009321190C1100
00B109511D7442BD
B900CB1502F40A3A
001BB6D5B500000D
5E0010BAE2FAAA00
73A790FB2C371CD4
05EE3EE5A728F11F
0000000000000000
0000000000000000
0000000000000000
0000000000000000
0000000000000000
0000000000000000
0000000000000000
0000000000000000
0000000000000000
0000000000000000
0000000000000000
0000000000000000
0000000000000000
0000000000000000
0000000000000000
0000000000000000
EBFDF2EF0008E2C6
DBBF16DEFADE2EFA
000B080000E300CB
0700E72EECDF00E2
5DC0440C55EF28F6
FF0300003B41D8F4
EC1D001342EDF419
17E8C316002700EC
E921BF0000ED003F
10001DEBD1D4DB00
00201DF0C9FE2730
380019063C18C6CE
002308811C0000E1
2200E5EE3B07F200
2E1DF8FCAFBF1FE9
0126F816F654FFF4
0000000000000000
0000000000000000
0000000000000000
0000000000000000
0000000000000000
0000000000000000
0000000000000000
0000000000000000
0000000000000000
0000000000000000
0000000000000000
0000000000000000
0000000000000000
0000000000000000
0000000000000000
0000000000000000
0000000000000000
0000000000000000
0000000000000000
0000000000000000
0000000000000000
0000000000000000
0000000000000000
0000000000000000
0000000000000000
0000000000000000
0000000000000000
0000000000000000
0000000000000000
0000000000000000
0000000000000000
0000000000000000
0000000000000000
0000000000000000
0000000000000000
0000000000000000
0000000000000000
0000000000000000
0000000000000000
0000000000000000
0000000000000000
0000000000000000
0000000000000000
0000000000000000
0000000000000000
0000000000000000
0000000000000000
0000000000000000
0000000000000000
0000000000000000
0000000000000000
0000000000000000
0000000000000000
0000000000000000
0000000000000000
0000000000000000
0000000000000000
0000000000000000
0000000000000000
0000000000000000
0000000000000000
0000000000000000
0000000000000000
0000000000000000
0000000000000000
0000000000000000
0000000000000000
0000000000000000
0000000000000000
0000000000000000
0000000000000000
0000000000000000
0000000000000000
0000000000000000
0000000000000000
0000000000000000
0000000000000000
0000000000000000
0000000000000000
0000000000000000
0000000000000000
0000000000000000
0000000000000000
0000000000000000
0000000000000000
0000000000000000
0000000000000000
0000000000000000
0000000000000000
0000000000000000
0000000000000000
0000000000000000
0000000000000000
0000000000000000
0000000000000000
0000000000000000
0000000000000000
0000000000000000
0000000000000000
0000000000000000
0000000000000000
0000000000000000
0000000000000000
0000000000000000
0000000000000000
0000000000000000
0000000000000000
0000000000000000
0000000000000000
0000000000000000
0000000000000000
0000000000000000
0000000000000000
0000000000000000
0000000000000000
0000000000000000
0000000000000000
0000000000000000
0000000000000000
0000000000000000
0000000000000000
0000000000000000
0000000000000000
0000000000000000
0000000000000000
0000000000000000
0000000000000000
0000000000000000
0000000000000000
0000000000000000
0000000000000000
0000000000000000
0000000000000000
0000000000000000
0000000000000000
0000000000000000
0000000000000000
0000000000000000
0000000000000000
0000000000000000
0000000000000000
0000000000000000
0000000000000000
0000000000000000
2315CAF100157FD5
3DFF1FEBD416D9E9
00511F00002000DA
1900ED08BF1500B1
E5F5E50604C9010C
57F90000EE17F420
F00E00167AE4F5DC
421D521C0026005C
F8F64F0000550194
F7001C70EA091700
00122A94F217094A
97000CC4FBF516EB
0003DC08F30000BC
FA00DFECFE252B00
0502DB20E1E9C0CA
02EAD002D111FDEE
27FA04F8C811DD2C
5C40269C03BC081F
00F1220000140075
E00059FA0D69007A
D9532DEA1FEA48E0
B8C30000F1D22CF0
400000AF3D17D1AB
F110C50100EB007B
F2B9E2000062020C
1F0009F0DAFE4600
0001D49C7F04E90A
0700F12C5418E1CE
0001ECF3270000CE
5600E4182D151E00
1DB75BFEDB003E41
002C11C40A0404D7
CA2C43D1173BEC03
DC0948E41E48E7D0
00136300001C0017
0600D1052E2F00E5
E5FD5B08FB2127CE
1ACF0000380D0FEF
11FF00EC4C023204
7F99ED1C002D0044
16341E0000010084
D500430C05C80600
00140EF7C8553C06
CC00E1D4448CCEF1
00CED64B1B0000ED
FB002BF638E85600
C15CFC0E0203FEFF
FE1BF4021C250056
0000000000000000
0000000000000000
0000000000000000
0000000000000000
0000000000000000
0000000000000000
0000000000000000
0000000000000000
0000000000000000
0000000000000000
0000000000000000
0000000000000000
0000000000000000
0000000000000000
0000000000000000
0000000000000000
341430DBF218FD39
1F0D13C69AD57E36
00F3DF0000E10017
170018F5361B001D
A02C0CFB2781CF42
9DF5000027CCEEFF
FC350005C1F4DE1D
24EEC8BF00BE00D7
10CC150000F000F4
EE00D6D7FD13ED00
00FCE0F11420CD2F
42000306E4D3C517
00BA0B26010000DB
FC0014FB2521FE00
C9FDFCCE2B6AF0ED
01D4D8FF0F3102E2
EBE027110311EF25
0FDC1907AB28F3FD
00002D0000F800EE
1D007F24C00F002C
F731070A1FF61DE6
EDDA0000BFFD32E0
D7D100D2EFFEE6EC
31F6EE01003500FA
EE3CF90000F000FE
9800E816331CD300
00370F3A1FFC0DE0
08002CC105D12228
00F507EDB90000F4
17001F2FFAEBF700
A008D707E0DC0425
FF13DCF61AFFFE22
0000000000000000
0000000000000000
0000000000000000
0000000000000000
0000000000000000
0000000000000000
0000000000000000
0000000000000000
0000000000000000
0000000000000000
0000000000000000
0000000000000000
0000000000000000
0000000000000000
0000000000000000
0000000000000000
0000000000000000
0000000000000000
0000000000000000
0000000000000000
0000000000000000
0000000000000000
0000000000000000
0000000000000000
0000000000000000
0000000000000000
0000000000000000
0000000000000000
0000000000000000
0000000000000000
0000000000000000
0000000000000000
460F83E0DC22BB6F
FCCA0551F1CB10FC
00D4F30000FD0011
0B007F1CD80E0012
06EEDB004F3FD2FA
36A70000B9D7E8D7
06C4000B0DD0F3F3
DAAAD1CB00560047
CE29790000A900B8
5100F3BC3E50D700
00D4DC694DC603FF
1500032884C0E0DC
00E003C5FF000003
1400C2F2CCE62200
B9D1EC21F3E6B056
031139EDBB6503C6
E15A3381EE254DDB
E5740344E42D42DB
00E0A600004100C6
3200D118120D00D3
FA512BFC8B1BE60B
1AF6000002D90E47
F0D50024DB0A16E3
09F9E6AF00B200CE
EAE711000003011E
DD00D44530F11400
00DB1BE71D290923
D6001D2EC9003228
001AE02156000085
A900F3E5F9487300
0D17070FDA27010D
FCCE072548E60B1D
0000000000000000
0000000000000000
0000000000000000
0000000000000000
0000000000000000
0000000000000000
0000000000000000
0000000000000000
0000000000000000
0000000000000000
0000000000000000
0000000000000000
0000000000000000
0000000000000000
0000000000000000
0000000000000000
F7F2F2F4220C2D26
1212251F311EBE00
0022870000E000F7
C0000F49F7C70005
E95400F450C3C52C
FB1F0000C62DBA49
B9310031F9FB1BBA
010B30EA00F3007F
C3071A00001D00A3
AA00F7091309E400
00FC1A1ED6EBD2FE
DA0022FBF0B304CD
00DDC7ECE20000B1
F600CE24F3E4D400
F1030008E3F55E38
FF01EED721D6FDDE
0000000000000000
0000000000000000
0000000000000000
0000000000000000
0000000000000000
0000000000000000
0000000000000000
0000000000000000
0000000000000000
0000000000000000
0000000000000000
0000000000000000
0000000000000000
0000000000000000
0000000000000000
0000000000000000
CB11136BB5EC2B1B
DCC2F07EE00522E3
00C3CB0000B00014
E1001A2E1C4A004F
DD6DCDF9189DC126
06DF0000BCB0DC06
2A370047D8E1CB3E
DDDFDCB400A300BE
C2D67F0000190039
4E00CEBCD04C0300
009FF051FFB1E8EF
1A00622FB6210F61
00D5D9CE0D00009D
D7000AEF14DC6500
E516F715E32E5F2B
FDADED2F310D02E2
0000000000000000
0000000000000000
0000000000000000
0000000000000000
0000000000000000
0000000000000000
0000000000000000
0000000000000000
0000000000000000
0000000000000000
0000000000000000
0000000000000000
0000000000000000
0000000000000000
0000000000000000
0000000000000000
7F00DD32FB230DF4
D60021980BD3F638
00143C00000F00E8
0E002EE8FD1C000C
27EC0C0071CD100B
B7190000FB05F5F6
E50800103D110D20
E8ABF401000E0020
D002400000FA0027
6200B0C33B0DED00
00F9DE2D1FEEF4F0
EE00F9571B0ECA16
00B1FAECF1000007
F600E6FF9CE9FE00
F42ED0F4F61DEDF2
00D9EE26B129FEF3
0000000000000000
0000000000000000
0000000000000000
0000000000000000
0000000000000000
0000000000000000
0000000000000000
0000000000000000
0000000000000000
0000000000000000
0000000000000000
0000000000000000
0000000000000000
0000000000000000
0000000000000000
0000000000000000
0000000000000000
0000000000000000
0000000000000000
0000000000000000
0000000000000000
0000000000000000
0000000000000000
0000000000000000
0000000000000000
0000000000000000
0000000000000000
0000000000000000
0000000000000000
0000000000000000
0000000000000000
0000000000000000
0000000000000000
0000000000000000
0000000000000000
0000000000000000
0000000000000000
0000000000000000
0000000000000000
0000000000000000
0000000000000000
0000000000000000
0000000000000000
0000000000000000
0000000000000000
0000000000000000
0000000000000000
0000000000000000
0000000000000000
0000000000000000
0000000000000000
0000000000000000
0000000000000000
0000000000000000
0000000000000000
0000000000000000
0000000000000000
0000000000000000
0000000000000000
0000000000000000
0000000000000000
0000000000000000
0000000000000000
0000000000000000
0000000000000000
0000000000000000
0000000000000000
0000000000000000
0000000000000000
0000000000000000
0000000000000000
0000000000000000
0000000000000000
0000000000000000
0000000000000000
0000000000000000
0000000000000000
0000000000000000
0000000000000000
0000000000000000
0000000000000000
0000000000000000
0000000000000000
0000000000000000
0000000000000000
0000000000000000
0000000000000000
0000000000000000
0000000000000000
0000000000000000
0000000000000000
0000000000000000
0000000000000000
0000000000000000
0000000000000000
0000000000000000
0000000000000000
0000000000000000
0000000000000000
0000000000000000
0000000000000000
0000000000000000
0000000000000000
0000000000000000
0000000000000000
0000000000000000
0000000000000000
0000000000000000
0000000000000000
0000000000000000
0000000000000000
0000000000000000
0000000000000000
0000000000000000
0000000000000000
0000000000000000
0000000000000000
0000000000000000
0000000000000000
0000000000000000
0000000000000000
0000000000000000
0000000000000000
0000000000000000
0000000000000000
0000000000000000
0000000000000000
0000000000000000
E62D1CE202F6DED8
DF11E4F0FCCBF1D2
00F7CF0000F20028
1E00D8E113160007
7F3EF600FF2BFA28
05D70000F5FEF314
11B100EEE7150736
07D1F2F100220004
F364DD0000F600FA
DC00FCF6C0E7F100
00B20F0506F9FDF8
1400F2B3112A0EF9
000EE9EBEE00000C
F100DD028204FC00
F8CA33FCE7F5F512
FEE6FE0A070501FD
0000000000000000
0000000000000000
0000000000000000
0000000000000000
0000000000000000
0000000000000000
0000000000000000
0000000000000000
0000000000000000
0000000000000000
0000000000000000
0000000000000000
0000000000000000
0000000000000000
0000000000000000
0000000000000000
0000000000000000
0000000000000000
0000000000000000
0000000000000000
0000000000000000
0000000000000000
0000000000000000
0000000000000000
0000000000000000
0000000000000000
0000000000000000
0000000000000000
0000000000000000
0000000000000000
0000000000000000
0000000000000000
0000000000000000
0000000000000000
0000000000000000
0000000000000000
0000000000000000
0000000000000000
0000000000000000
0000000000000000
0000000000000000
0000000000000000
0000000000000000
0000000000000000
0000000000000000
0000000000000000
0000000000000000
0000000000000000
0000000000000000
0000000000000000
0000000000000000
0000000000000000
0000000000000000
0000000000000000
0000000000000000
0000000000000000
0000000000000000
0000000000000000
0000000000000000
0000000000000000
0000000000000000
0000000000000000
0000000000000000
0000000000000000
4CC120EFDCD5D7D8
3C24FFE57F07B2F2
003D180000EA00F4
460038E7E605004E
1BEBE7FED5F1E835
333D00006453F91B
EF0400F4E0070ECC
FFF2290C00F30027
16AD9C000012022A
E200F9EAE60EFF00
001312BD1CCBCE26
1D00E44E5F8A8401
00F2EB06E40000A8
F70018231EFCFF00
6406DAFE100F1445
FEC61BED08070713
0000000000000000
0000000000000000
0000000000000000
0000000000000000
0000000000000000
0000000000000000
0000000000000000
0000000000000000
0000000000000000
0000000000000000
0000000000000000
0000000000000000
0000000000000000
0000000000000000
0000000000000000
0000000000000000
6C0311F7E9232FF5
0259F6DDAEDB4D33
00FC4100003800C2
2700FD400B4600AF
EFBE01090A57E8FA
29FD0000E1D2202E
1E51002E49E8FDD5
26E8C92B001D0002
783BEB000017FE3D
27004BE2F8002400
00C91D35183D14E2
B500F466232BD5E8
009FE0181C0000BD
DB0009D0F5FAE300
FF1CF9007F65F637
FC052E4F31B108FE
DB41F2CAFD7FDEEC
D30BF5EF2B25EC01
001CE600004900E5
37002466E0BB0006
F1FC0605D8E7E027
26C50000CB080A27
CF11003D2FF718DF
342117030035002B
21FD1800002200CC
C6000710E6FB3000
000D73CEE903E8F8
FF00E35A2F033FE4
00560BF642000006
E600E8F9F419BF00
DB1E1121EEC1F4FB
01E9291E220C0439
0000000000000000
0000000000000000
0000000000000000
0000000000000000
0000000000000000
0000000000000000
0000000000000000
0000000000000000
0000000000000000
0000000000000000
0000000000000000
0000000000000000
0000000000000000
0000000000000000
0000000000000000
0000000000000000
0000000000000000
0000000000000000
0000000000000000
0000000000000000
0000000000000000
0000000000000000
0000000000000000
0000000000000000
0000000000000000
0000000000000000
0000000000000000
0000000000000000
0000000000000000
0000000000000000
0000000000000000
0000000000000000
3D4A68B0E303B213
461D40E707CFD83A
00EF6900004800AD
D900CACD0C3F00C4
FC8839010905D0BD
0FF000002B3E2DF9
CCFD0016E61115DE
2740D4AE00B80045
5BF50200000EFF24
17001ACBE8EA0F00
0029C00B22CA1B38
1500C72A1AC2F5EE
00B6E2365D0000E9
1C00F5E6C5DFA000
D17FDDB803313638
FB4625B7DFEC0666
