D700EC0559F3B9F2
5B098C817FD77F81
E4DB6C0C5CC3FBA8
7F3810EEE9E00981
8114B4057F24A7F4
C1A8EE817FD47F81
F247858DFCF3E0D9
818409958191DDFA
CA748137F44981DF
F2F2CB81C6A6E6F0
E505812C81BFD97F
811F2CFCB4D0CEB4
460A89EB81C53867
810FF181250D7F81
FD81EC81FAEFACF0
7F0981DDE90FEA81
E63115193E1795F1
F10FAF100DD1E8C8
81002BF07FD80A05
6B489381CEFE4595
17CE960B2B7F421A
D4F3A287362C1393
E8C81094F2120EC4
8AC4E6F2FADEECF1
0A1CEB2EF4FD06EE
08E003D40EB70BFB
27DDF894A33594E8
077FD3DAFF0F1D81
F9B6FDC8CE0B2E7F
14D10CEEFA0046C4
19BF8110B3F4001F
47EB940039F60CF9
A116F5663F7FA2D7
E0D28106F081B781
DDD83E85EA81812A
282681BF81D229D2
DA0310FD13527F2C
1743D70367E777A5
0581658F00D40B81
B821F4D7024B10AE
D394C9F6249F012C
08D807BFFAF98181
8C8109AC0097DD7C
07FB33EFF681B996
03E8E9F1CDE57F7B
F310DCB981F748C0
ACD5A3EF81C5FFF8
02F31CE511D9FC16
7FEBB5AB1C8A45FD
7FEAC9BCF2E6425D
F60C7F0E1D08F532
D723F909FEF514F4
8FED070609E4FBF1
F4B17FF6369F36FC
81EE2DF6104C1401
02B71E24D127E3F8
8164A6E4BA3F8407
D7270EF6D5CC0904
1603FE02A4AD1112
E4F648EE81E612FD
31EEAB000D812846
D2CF06F3D9F20D19
E0E8F6BE291090C8
22D68513BA91F086
3FE7DAE410D66E10
0ACAF7F2D4093525
0A0C42C0D815054C
A83CCBE911B47F13
42F415ECEEF92662
DDB449FC74D1A219
A91E5B0FFAF3EC1B
0CFFFF7FFD7FEC12
FC410B7FFA11F318
0C1DCEE90FCBF906
81ECFE810D7FEFF2
F9F8810BF7F3DAC8
B51713E71BF8215B
E7C6EC14C3D9EC06
A2DBE51BF38119C0
2714C1320F1BF0EF
5BCD0636EC557F81
FEAAEEEADEECEA56
F4833081DED6B84C
C9041814EB1EDBEA
CF6A7FF2FB233B19
E77FD6053EBE04EA
F4A881EBE7F3BB4D
85D51ED600F3D681
109CFC12F19BE77F
DB07FCF7E422BFEB
FE0CF3311FBC8148
04FA1A1AFFD981A9
1E81E9EC9BDBFE54
E80481DCC51206B8
812BFBD59BC581DD
23E4FE335E05C6FD
385581038A16C1F6
E8E4F6F60D0C0D4D
06DCF201B6DEF346
F6D9EDE4FEF44C07
9D0101D82B0037FF
DCFDC011DA815B02
B0944CEF8176FBC5
DE8116EAF66DF0ED
BA7FEF3B817FFA00
817FFD09002200FB
9CEAA0E298A6D818
C7FE3D28C30FFBFD
7FEFCD50F7A3CAFB
19BD07DDE5B8EC06
11110F9EE5FE1CC5
D281D8ED81A77F05
367FBC02BEF9E8FC
03D2DDE1430BD764
DF05EBE01CF7065B
E0B4E718F6F158EB
65442681FD9CBF7F
DABF05F109E2FA04
B613DC13CB81C6C8
06066F1103508103
DD72EE33E35A0B31
CD3FB10E8181E9FF
AD08FCAADA161A0A
E3D9967F0DE5B702
E4DE7F7FEAE9B4FB
00810EDCFD810E00
BEF206DEE8E1D581
FDE8E416B0D9370E
4615FE7F8166EBC2
0A811D004AE5F17C
0C81D2E32BFAC47F
C781F5E40581B611
D17FFAACF09AD020
811DDD07E91B08F5
117E9381F9E7811B
A1D77F9EFCCDDC93
F2B516FBAB2EF06C
0C2081FDF9F7E604
1AFB0507B2FF9C2B
F0E71A6FF9069D12
6EE0591FC32291D0
EAB28D14119E40A3
E8CBDEF3EFBEFDC7
F0F8F37F4181FFEC
