0F5DE193CC7F1A20
F3F00F2E1E8DF3A1
8181C40981B903BE
ECE7840BD4070AD6
B1F00E192306B3E7
81EE0E8A010707F9
CB0148E423BB8181
CBF0C61D15A581FF
F915D10DE5062081
FF2481CA7FFA81FB
F2A5F119DBF181DF
81818111FA9FAC9C
817F02951227C881
9CDA8103D2030001
F9F4E7EB811E13F9
D5811111E989BB81
E9C38E8108F2A5D1
09EBC5A681811F83
C711FFCE118F2A7F
378181C081CBDAA9
810DECEE0F7F8109
A2F8FC81DAF803F2
C2CECBDCE9D1D8B6
148881D4F8FCD00C
12FDEDBEDE81DECD
07B806C93E07E781
0BB50BF4B700F4DA
94FCE7E981FAFA1A
F111DAC5171B81D9
B2F911F9D3140913
702907FCAF48A1FD
FF8911161793F4AA
F3EA81A181FA8181
A014A7059E8CD381
99F4F781DD81E1AC
B4A81781D50EEB88
A5FA05F99329D0FB
D5818DD90581A809
AED51581EF041408
FBAB3081F001ADFC
F52AFF0F0893810D
F416ED0E64E4EBBB
81EAF33DD7010281
D5F6BDDF510507DC
1C520DDC334BE21C
810DE9FB818CD981
01B2E8FBC2C4FCF5
B5C48CE7EEBDACFC
FD2BEFDB1424CFCF
0DD6F621B7EEF9FE
1B17BB03FE13F0D9
81030510F00EFBFD
0F0881E6C8ED1D81
D4F8EEF0E408F9ED
E2247FF8AD8199AD
811309E0E581D0E1
16128114C80ECF91
F2BEC8AB11FD1510
170FCA16FC1BEA03
F2EB06EEE1818118
F97A0381361D0FF0
DDF6CA01CBE1F7E3
0411E0E3E87AE716
0D1BF6A418E618DE
F681F5F008D40DE5
D4EB18978FD7C5F4
4CFB060400F5BB3A
BC840AD2DBA41633
F4E80095040FC8EC
220716E212FE03BC
99C325128103E6FA
C2FAA0F8FEFEEDC4
E8F4C88119ED1CD2
0747FBFF96045BF3
EB7F092D81C5DCFE
F2010708B9FDF9D2
17C61CDB7FF6CC09
DFE2F30B2E03F3F5
7FE111180830BB03
345BE6C2D651F617
07FA1A0EB1D7F0D1
91F9812351C6ED08
3FEB00DEFED581D9
B6F1F9E8FFE9DCDE
0609ECC5DE02EFFD
FBA5811502F881F7
B3DF209114FF59FF
DF99FE8B1EFF0C28
D3141381F313C0FA
E1F30E6E288121E7
9705157FC981F898
FAF1EC0C38F2CFC9
06F8F9217408FFEC
F00800FDCF81B485
0D811AF1FF811AE9
A42081AE0B428104
F810F211FB1507E3
0981D7E4BE038107
ADBA81FA08FCDD17
F6EFB3CBF481E98C
0981CBE49102EBB2
E7FDDCC481F2AEFF
54F929FED98E2DD6
C1B710ED81A4E381
E6F287F011F300C8
FA81B181F6FA28D4
F359811106FA0C11
03ECC881A8F8C8FB
1A30B01AB93FE406
028106DBD1160CD6
FB04A381F63592CA
D72C031CC04C00FE
D9D1FEDEE8F6F40D
C0AAFB81A00BB213
DADFC003EE04B830
0CCF1217F69CEBF1
FDBB15F68809150D
02F202E2EBFD0081
6F81E20117EE3DF0
0CDBC316EAF520EF
811FCA9181F8E5DD
EB85FFDA25F9421C
FC76A41CC4D7AFCD
0BDAF9D099F601AA
F6F981FAD67FFBF9
0400E88106F70102
25EE81BD03FA81CB
DD61FFDC816807F6
81370008DB2AFCE7
81080D46E8FD12EB
1112080C0204A1E9
E513E1F90EDA8181
E9E8F681810EBFF5
F0EC83F5E00896EC
7FC321F7E1025A20
0C81C3EFD700E0C3
CF7F1116FE020E07
819CEE491DC40BF5
F93A024925E1FAA6
EA0D12D607F1F081
E417B6D5165B06D5
FFE600FB09B781F6
9EE2F3F5E592E981
8115B781E87FC9FF
