0830FE0FF4F59A0F
02E30B0808F772E9
10FA000D0504F7D2
81EE09BEFAFC2496
F408D61311D8D1DB
0F1BF2EFE528810C
12CCE9ABBFF38181
FC81D9F5F1168111
A408A7FFEB0C2CA8
05030CD3100914C2
1FD8C68DF7C701ED
0DFD9D09D404CB0E
C81F240BE2074017
111C4A7F141681F4
1214E5F7AB81171C
B0ABF8BF03492981
E678EEE71578FCDC
7F04DAF9E27F5C2C
E8CA07DAD3F85D21
F6EDC07F0081E4E8
A5EFEA7F7F9AE431
E0BC1BDC09EF40FB
81411FE501AB16E3
1F125781AEEFBBE1
BC00E4F3F817DCD2
ECFD7F13C53DE4FD
7F1944810681FB28
D308CF7F38D581F7
21D87F090E0466EE
47E5285FDA7FA5FA
E87F81008105E77F
40980BAF81967FE9
814D11F5F37FB3D9
F5EBF7B303FEC913
F4A9B88BE18112E7
ADB00EACDB1B940E
AAF4FE0C11F800F0
FAF0F30F290E3509
9753F4347FFB73DE
FA0F7FE6E10A86FA
F1F61F8117E4C712
0BFF177F8101810C
0E8E44E2E208D1E5
81EACB0F7FE9BBD5
F51C1B81F82223F6
0AFC11091109B5E9
E8158206A5E9A60B
69811281E58120FA
E77F130DEC71B1F2
191CDDE6815377F7
D3E5FBF8DB024ECC
862AD5082CF39E88
1A0EC337421CDA7F
E402083B4B08841F
825DC23D11C5DFF4
11B10DA601D109FC
50CE3EF80824E381
DFFC45020A7FE245
42FF55A506231617
0D1B374E4DFAD105
BF054DFAB2817F98
39F27FBB002DE7B8
C74C18E70994084D
3AFBBC0BCDCF33D2
E543E9BFEF722396
717F9B150C507F7F
BCB3F7F8BEE97FC3
42E6812945E3EF16
7FF7E54B5381EE61
E8C0CEEF7F820EE6
FE7F0B6325812CF2
FC2C01CD81EB28EE
A9E37FF089CFBBE0
A4FC52F7D909017D
63087FC5000AE8CB
1AE3DC61388DEFF2
C8DF7610ADA96FE4
7FE2718E1D3EEDC8
816CF8D61BD4F850
311AE9C191B26923
F030EC811A6081F4
331F090CACF5AC25
0E81818181B4E78B
B8A6E8127F349699
78B8C6E2F6AFA034
810F0C9C6D812AE7
ED3E20652FD754FD
BCF6EBDCDA22DE0D
810C31ED03AB81E6
1003EE17E90ED37F
F9A97B0A81F8C602
D1BE81040881138A
E30DE1AEE6CE0636
F4FBE8AAEAEBEBFD
FAFEE0C521ED81F2
2218F2CFDEE4EEFA
9F0381DF8138B2BB
15F718EA9006DFF0
BB10F10417F21A81
99EF0BC8C4868181
D0E7DCFA06C5B44F
008198E61FD58BC5
BAFF81483330E0E1
BEBA2BC6F4810181
FD811BEFEAB004C2
DD810231E469F400
FE1622F109F3DF11
F0F9B3152EE0F2DC
818E04E322F90481
FFD422E6DDEF2A81
E91DE5E7EA9AECF1
3FFC8112FE33EA14
0E21C6D4A6425181
5437810BCA13191B
B8F2010DF21D38D1
42D810C04F13C655
63D39C010290810C
D18681B0179D8E8E
EB3DBE7F39A0FA98
B9F14821FED6DAB7
3BE53D0B8181E4FD
81D4035117FDBE2F
0A810831C80EDE81
08F1BC015BC1F704
8E81FEA7819A1B96
25FA15C1810DECEE
04090981F4042208
32F3A709E2C21214
F2DADA9AC764E00A
0501FB81DC002711
81CE99CAFCE2D60F
D981005B60F8969D
318181F3ECA92D0B
F4F6DE81FED91D81
3857CF5727C202CF
81B13F300EDF42F6
BD0302FDF28DDA05
E5E1F028C7DA0F36
F6E0230E98DF81A1
FC81CC0117211181
C385F2DC95D5E4D8
EB81EB189DF6EC15
FAE315222F21A712
7F030CE4F0E8EEB4
