81868F0CFEFE1007
D9FDC581F402970C
FC8102FFFB81AF81
04F80A81E8078181
81F90E81B4F2FCFE
8109C5A6817F7FFB
FA06880612068105
813319D80408F681
BF8181E8F581F702
02DD07099D041481
0281FC810081CFF5
31EC81818106F409
D2EFF809B1C4E8A3
F600F9008181F8F7
F081B381F781C6F8
04CDFBFCA3080481
12BE0D9BACEBF4FF
FB81E2068191CF02
08F1F615FD050705
81F681AA03018108
81ACEAF88181D4D7
FFFD8106008FFFF1
C30B078103EEF21E
81D305000581F2FB
8107B59A03EC1EEE
021718D881F7FAF7
048181C6EE05F63D
2D81C381E9E8C705
FCF000010481E2F8
81A8FEAE01090702
88F9EDBD81FC94FC
81110AF7C2E3CD0E
BD8181E704D57FBE
811DFDCCEC0B07E5
0702AFFFFDD602CD
07A997A5EDEEDD1C
0287D0FDD90FF202
DAFD8AD5F2EBF906
FCDCCCDD81FDE903
0581431BFA0A0CF3
BDF3B7077FBA81D6
D509240E1BFD819B
F0F281FD08A9E108
7F55D893DBFB81ED
EDB3DBE396EA1181
DEFC0E8108EF0B81
81E58100D5C0AC00
EC817FE281F0FECE
F5810D8181017FB6
16BEE68EB081133B
AF0D818104EDF903
FF81C3CCA605BAE7
D0AE8181F100C300
EFEDF2D80181F8FF
1BDEE5BA86EF037F
D3BFF501CA0409F3
C7F0FBD408F681B8
F7B983FC01CFA21C
EEFBF9A381F00675
7F8300D90681F6E9
F08BDAFDDAC90181
09810481D8E3FEFF
BFF88110AB00EE81
D5F8E807F68181A9
0B9CB1BB81F7FED9
DDAD07190581F811
FB07270104D605D7
FF8181D8E4070FC1
CC8181F706EA19F7
10F78181FFA42D03
1581090CFA000BFC
FD90EC810BEDF8FE
EEE8DFF3EEF5D581
B8F48DFEE8069CAA
0E0EE705F2A581EB
E6DBEF0508F9DBDA
D981E58181B5F430
EF81819AF9F8E9CC
BCDD9303818881EE
03A4D3000CB1FF09
DFA6F3EA0600E4F5
FBF50F8183EBD8BF
CFECCB02F415FDED
0AABC2A48100F8ED
A7812F1E0A0981DB
81CB1D1101E2B3FF
81810AE081F4FAFF
E2EBD8EAFEF681FF
EF04F3D7ECE39A81
810B81ED02F68101
B6050581F78100F4
09F402E3FCE2F5FD
F78181048106E9AC
EC98F7B209CD03EB
0E04C6F68FFFFF03
01FE060710F59E81
F6F8CA97EAEDF781
FED6F68E07008181
FEF5F5FE81B4DDFC
810CF1FA8CEA0383
FD15F7078101A006
CDEA00F2EB2CE305
1FED81A192BE0586
0311E816818D9094
04FB02EDF8EB0809
D50612E881070BFF
EC000BBEE1BE02F8
FC81FA050C8102F2
D7FF93CAE3C9F014
81FB01D4E8B70101
EBF509AFAFF1D803
F501FD8407FCE7FA
DD00CFF70A81DA8B
C9C6E9DFC70481E2
81E30CF3FB06F0CB
0204D004BAE700F3
08DD0404FBA7FF0D
D881A2F6CBF981E8
F9C0E3FC05E7F8E4
11D5E78181E702CD
17810D818101AF04
FF94F481D5020981
05DE03F9940EFAE9
FBE9B8F208D5F6D8
8105FCDBF3EAF2FB
D4CA81FED58181FA
FF810281EE0508FE
DDA9EE0F8105FEC3
FFFC060CEEFD06FB
0181060A81EDFBFA
EDDF81C9FD02E9F5
EAF3FE46FF05FD0C
FDD403FBF6F5CFF0
0709F51D0CAA0BEA
E808EC0BFADAF0FF
E9A4FD86F3EBFD06
7FD803EA1A3BF1EC
7FDDD881E182F502
AAF8F908CD5FFD0C
F5ED20FF9FF9FDE8
7F000706327F81DA
EB02F103FD04CFC0
F541E9FB0A07F2FD
09F71502FF030802
81010FF2E4EB2BF2
8106F30DFBC984B5
FFFCECD4FDD20FFD
F8FF03E4F9810408
E9FF89E407F333FE
0002198105EF0BF7
F806F007F981DBED
7310D3EAF100EBDE
7901F701D9CB5DE2
F414FB0B03EA0CED
F00300FCF2E70FC8
07FF0314F8F78181
C602F39704F7EEFA
000EFD0CFE07FFE7
F3FCFFF5C4FD7FF9
040614FDFDFAFC05
09F900F4F701FD0B
FFE2EA0402CFF300
0EF42081F7F7FE0B
13EEE10323FDFFF8
040EAC0414811881
01FDF10CF0F009DB
8ADD0CF308FF0002
00EEE6D0EEF3F3F5
2410E381F500EA06
07818190E4F5D900
F3EB01FD06ECDDBC
F8A2FF09480F0481
3C01070008390FF4
07E89FED0200A896
F708E9FEFEF91FDB
DDB2F801F0ED0603
9F000600FFF8EE03
B10581F9160795A5
09F204D2FCFEF1D0
FBF2E281FBC4FDDB
04FA930FFE0DED81
BB07F6B5EB0DF881
C30181F300BC81F9
1D1081FDFDFCCB15
0707E4F912A40CFD
FA04D5F903B97414
81F8F90A0605F5E4
0509FDE5E60C9FD0
DFFBB9EDDDFEEE08
07FD05FF81010681
02FFF50706A4000B
F903FEA803F9FD09
06FD0181F681EA02
01C004E3F8EADCAD
090923F7DA2102FF
D61104FC81EB04E0
0601E6F3B3F3BE00
0281001704501702
05032981FF81FE81
FB358100D08181FB
E0F70A0BEDF3E5F9
E3D4E91B1BECD400
0508FD09810F06F1
A8C6EF070AA80D0C
F30581C8F20EEAED
9E1205DF050DFBCA
090001B2BC020C01
0208DD810281BB1A
F70081F914DC0081
1A09FFD6F7DE9E81
9F0DF8D1F1E98181
F300F508FC07050D
FA0514C708B90FF6
D9A3B9EB810A8403
04080DD60809F2BA
E68117E6B71AFD81
E29181870ABD17EC
F58119C4FDE0E2A0
FF09060BC108FBCC
D111810EB90DC2ED
B2F5F8AC02138108
EFCFE1FC16E7BC04
008D0506EDF3C4FA
0D81FF05E5080607
02FEFBFE0CFB07E9
FCA1A217B006E5FF
0001C4060FF58106
06080913EDC7FBA2
FB240BFB130081F8
0CC413EAF20F0DEA
B1F916EFF5A308E8
0140E5D7ED0AFAF1
EF2FFE010ED9101A
299D31CC07810800
9D040AFAFE37F2DF
F2F601FF27EDFCFF
D70DF8F4FFEA8211
06E2FBF7F211151E
0309F9C50C06FFDE
0201D90307FD81F4
F2FFE7FD09080C09
D1F7E6FDE313F2D4
FCBA0FDAC581CBCB
0206F52CE1FCFFE2
0D043906FAD2FEFA
0FF914AAFE1101F5
0802900905070DC7
07AAED20E1FE00F5
13F0C125D39CDE02
08F2EAF1F31DF4DE
18FDED02E2C7DA81
FE10E3E9ED0425E5
E5F5FE810105EB0C
02FCFB0583FBFC08
EEF2FD1304F7EFF7
FCFBCBFCFC030208
EBFDEFF004F104E8
06EC81DEFB02010E
8102DF8BF61115F1
0CFCEA08EF81001D
F2EFC0FEEF092DDB
F8E8F9DD09331681
81FCC9FFF7E9F70B
D524148D080D1712
11DB07C9F40104E8
151CC2EF02EAFC01
810401FA09E90481
15F8FDE7ED01FDB7
DFFF01F7F7E7DEDD
F3F9150BFADD81B9
ECF90BF808F8CC81
8116D7F9FA06D4F8
8802DAF208FDBBFD
D4FAA508D6ECD9BB
FF81E8BA81C6FAFD
0CF40ECDE8E8F981
F7F90CD10404F313
FAFAE3DB10E9E7FE
D704B9080DD60A29
1903ABFEF105EEBD
21FED3FFF281D3F7
05D5210EF9812B15
DAF402FBFAD081DA
15D7F31781EC9DFE
1F03E7FCE8DC2F03
E70305FD9DFA0EEF
8101EBFCF581F3F9
0DFF8181FD05F9EF
