CA21F404F70D01D2
0C0A1B7F02E4EB11
013CEBF80C371302
E0E5FF01EDBAFBE9
D5FFD7D517FCF313
D715BEF8FA1AE27F
15210E0D03670A13
0ADDBAFABC18F9D1
E72F13DF03FA312C
DA24E7151414320C
0E00F62CFE250A55
15814AF6EF061AEE
3FF6D248F9B8EDFD
FA172D1FCE028366
E7E0870213D07F07
E5F94EDDE5F82BE6
ECDF08A84722ECE0
7FF80614F5E6D803
180766FE06FCE9EE
E1F9F111030D0C2F
03DFFD271BE52463
1DF47FEC040590FC
19354505051DC039
1C3929C1D6BCFF36
A4272E983BD525E0
E60FF254E5006FD1
0D03E63C311A1152
198105BBF33B4396
E42EFB15ECFD142E
FFE823063AF1F42F
1D093AFD7F07F7FF
F6F5230EE22910DB
451912ED4D3EDD48
D8E20F9B1757E3F2
001A2506BAF829DB
1D81E41F650CFFE7
F7FC0D0351CF03FC
11EC0B7FECE117F6
25AFECF9FF0DEA20
E3FF1300A4E1102E
BFD0381D693A9C22
B919F9FD81063BE9
B5C837CAD5BD2117
25EBE0EA0EDDEC36
13C9FD3BD4E6CD72
AF17814FE4410629
F42EC2A7380F2CDE
0BCBF2DEC1FB1FEA
EBF2A5E2D900381E
E7EDFCFE09EBF6B8
E2E1E4F440C97FFD
FA1DE6F9EB5A3631
16F23A1BF103F72D
0FE40EE0DD1851E0
4B1EFEED2AEEFA27
111E1F7FE2E5550F
1E7FCC1866FB0102
F21934AE0D5BC51A
E6BC05E8F6E607EB
A55C05D3B0730F02
CCFFFCFAF103DD39
0310D52FFEF6F0EE
1EBBE9ED11DDE97F
D90427F50016220E
BEF6E805E00329FA
0B1017EDC317D5F8
25124F13E37F0FA3
1CF55E0E91E3E3ED
FEF6FE1B2AEA450B
FE510BF0F517E3B4
05ED157F00C8EFE5
FDB7EDD32B1AFFFF
04E85116E1DBA8FF
1EDBD6EC22EE403A
CD81F3F0BA123912
2988EA29E7FC8EF4
FFCCDDDBFDFD1603
5D011EEACCDD02E3
7FC725090146CEAB
116866EB1A25F94F
1098451AF3FC2A42
2C1CB4ADE4CFDC17
DD11633332B6E2ED
612B7FDF0502CAF6
03D27DC3A459F214
2313F8811818F0CB
028DFDFA2ACF2142
DA002FEFFA3110C1
EDFE0BD1C3F71823
D707D4E504093AFA
EC1AD62418007F0F
110DFEE92D76DFDD
CD675C033F25D4E0
26E70ADC6E09E8BB
D3D246B80BE281CE
8435EB45CC04BF08
208BDD2DEE0F8456
21016417B9D995DF
CED53AA1D2B37FFA
D132DDD719DEED2C
1208F381F4C621C3
450C1BE5E9D6F506
F9E90227FC183102
F6062115DE2106D8
CC00E2DB2429E3C8
5AE11C7FF00319DA
D24636EC1995E9FD
3AD1BC048596523A
BB2BB2D40876E5DC
1CF95BF2FC2B4903
620C0AE3FAEE1122
E4D20AEE7FEA5BE4
1960260900F84CDB
CDEA22FE1E15D5F9
D4E4DB187FFD20EC
B50D1705EFF8E409
267F69EB0123EBE8
3A0406353DF1F9F1
7228D7F508E5C4DD
B6140702FEC60FAC
081DF4072015E231
D62A07ECEB6D0608
F3C9F3E0EEFDE235
F681E6E803F0D2AD
133FB1F0CD0BD3CF
FCD4E7105CFC4DD7
E2FAFCF5F6DBD8F9
BFEF037FE4FB1A22
