DE51D752AD4AFA2C
E9EBB64BBE348400
2AB407C3B9C2E0B2
B55019EC4BD85636
BF7FC56EB4AFB55B
BCB38128387381A7
410FD1FAC4B4C2C8
81664BCA63977F1E
D02FE43B1EB7E643
B3A9CBEB4041D2AA
2029994D09ECE0F9
D01737BC1AB227E4
B266B4ECB27FB858
D8C3937F81640AB3
2D81A4FFD3B5B0BE
D77036BE77827B54
817481ED1DD3817F
84818A64327F1581
7C39906D81818181
AF7F7F817F815E79
C52ACB0161B0CB42
81E0D1F4415025D0
7F64817FAEC4CC98
D80242B918E30435
FC15D9A9F738B43D
D4E5D343D85753D8
FDE6D84AEFBEC5F9
143C33F935B71245
AA0DC4815DEFBE4C
AFE7EF4FFA525EC5
603CB476D7C1B8C7
FB1D2DCB39D1EA7F
E410F4C07FC1E91D
B9F60C220C182DFD
543EB72EB9DFECC8
F0F309D5111FD367
