047F1172EBEF0D0B
B1CF0E1805DD25BD
01F2F6020201C9D8
1A18BAE60FEC21B1
7FC8D0FDEBE01834
D2CD6D10D514441D
52F27C95F2FD0CEB
6C1D2FB3999507F8
1461E7CC2CDE3E50
D9CE78EE0CAE5907
D728DDA3C714C4D5
16E71B81F581671E
460E517031B4EAC7
161C05B2B1054C21
CDC51AEAEDF02B0F
C7098426E9DF7FBB
0AE18F2581F01719
7C4A04978D0BF3BC
EA2A63B9481D3FFA
1A05C5F5F46A1B34
1CC8B0E0EC43FEED
191CF0FACDF92138
CCE838D7E61B700A
39DBFCE58124221D
0013A9DD0DF90A13
B7189B13D1191F3D
EA087F0C22C7E509
E820E8168B40A00A
F87F1415FC06A4C3
C41F17D2FDECEF30
F101EE2E1AF3F804
2E1CE20B0A2C0FFC
BAEAE8F03220D623
FE08D8140DB4026C
2250C24ED36666E9
DC8169CCFF12060F
E71E091D07E7E4ED
0AF6C9FA235DF99C
EAE115CA3DD01FF9
F77FD4FD1C06C70A
FBFF0509F00BE27F
D60D12181FF817F1
E5FBFE05F7161312
FC1E13F500CCDFFD
E438E2FD2AE82C3E
D7FBE1F119BD398A
2225EA35CF07D3D1
CFAC1B1A3F81D5D6
07E90FAFF1736755
AD95364BEA00DC22
6CB1321E917F8601
18C1F0091A9060C2
DB08EA373700B564
99C311FBD507177F
EEEA6DF2D9CD33B1
E025F7EE9E1CE4F9
B84828C3DC22FDBA
C107133B318C3E00
F0F6B31CEB06CEF0
CA567FCFD62E9B3C
36FE002FCF4BDDEE
C8EC0FAC00C1F708
25BEFC24D8000606
F87F252FE10CCC02
1A0E3F3206125615
FDE2555BCED51ECB
1B37EFD2BFFC192C
D3D5FBDA67322281
E4E507EA0515F33A
E2F5051400080107
1E11FEE8ED067F26
F303102135042322
ED1B3935EBF8030C
2AE1E87F1BD60ACB
447B0EFC07D80DFD
CF0D01F52C46D3FC
4EBEFA05CEDA0D0C
F11C7FDCA21A4217
0CD20DCB160536F9
450D085CF308443C
38580F3CE5071CEE
DCE2E913E2B11A0C
AF1EF6E71591D713
EDEE1CD47F2E188E
0A00122FFFFF25CF
0D30D3E923182231
E90F082A0D37C739
4B817CA3C0424CED
8B07E2003107037A
B7FF81230EEEE31E
1E501108EFF8CB3E
F4AA4AD326D2AE4E
01D7140DCD90DC01
3065F8A3AA5800CC
4FFAE5BE0B812EFE
0DFBE65D88BCAAC3
DF280BC3D7E81E27
D80AE81DEBEC16DF
D76CC51F1E812008
26DDE8FFDD30BC1D
41D6372250E1EE23
0704FAFC3BE534DB
D5A8BBD91EBADA30
E6117FA10EF03AD8
2E7FB6E1F1D6BA17
A92F0FE3C72E681D
B5AB26072A0FF513
1DD78725E31E11DC
2214DBCED80B226D
8120F9F511DC1324
D916E5050E25180B
FDE20DF5F3E9F4FC
0794E46807F8F343
8109ABCB14A770CB
BFF4A5BEDFE9E520
151446165306CCF9
010EB81FF6E3CB13
CBDA0503ECE32944
BC0C0620FCFBFAAE
5354D71EE4161D7F
F2F3020BF5223EC1
DBD46724F7C3E91C
36FD00E20BE1B3F9
DA307FD81203F900
4AF3C6BAF6E9FC2C
D7B412A5C6D018D4
B5FE5F93FF41F2B5
CE471B7F3E9393E2
1302404B1006EA0E
F0E00A67270C23B6
EE180001DB33E2E5
34B41D7F75135E38
FB54C481FCD6FA30
290CB99F26EEA91E
EBDC1C20FA64F0D4
BCC6FDE464B7A6FD
CEF90D1A222D3011
DA411A413501E716
382CE4F7DF05016C
E3F07FD04C22E3F7
D323240203233BE8
1FFD980C3609D839
38FD03CD142D1A57
98E406C11D81C104
0E552BF5CCF6F17F
DA13FFDDEDE7060E
F3E91F0EFED3E6C8
FD1B20CBFDD417F0
3481A5A8D4235ACD
00EB1116D20DB555
32061ECEB539FB7B
1AB9FB27A4FCCA26
D2BE12ED2B009807
0807ECD0FB97F2E2
1205EEB4FDC66ED2
8117EAD0FE042B11
0306E510FA2708DC
3215B3E22BF40488
04E53DF25936EEEC
FAFAEC4E21EA8135
FB37F20BDB023ED7
1026F912EA024BFA
080D1EFD05188110
21C4E3E3CC1F05F4
162703CE0B7C04D7
00F401E41DF93117
22CA81100FDFFA08
276C011BD5E23222
A8E50FE73712D317
FCF60A7F15BCEBFB
D622FA10FDF003F1
0208CE1BF124D91B
FF337FE6E411081D
130C15F8F6EA19D7
32F71CEB40F9D849
E3E331D7C0DEA1E6
D9EDEED31D0DEECE
14E8113A5946C6DC
F8F1A78C4E1EE439
657FC7E848E3C57F
F4F520EF16C1451C
EFE8EC4E7F23EDD0
0227190F08CAC32D
F701E008E3D3C2E6
2408F2D60BD33DC1
F70DCB0BFF0036FD
2DF2E9F7EDD5FC4C
91C31CDC7FDF11A3
C8E481DB1BF1EC55
25AF7C153AC60DC1
0210ED180C17ADA9
3A4829B7DBA105A0
D57FD739E0C6FF1B
E5D1170F3E11E9D3
F72D03100E21EF12
05F4033576E6F8FF
E65345AF091DF67F
AC1501F3DEEF490A
0C1BCB18EAF3F4F9
F507EE01C9DBE501
E421010617F6E87F
A13FC40ADDBF6B0C
D24B0412FEACD6EB
0210650DE2CFADF4
25C35646630CFD04
C5A45F6F2524EEDC
2324EFFF0713046D
F807BB38C47FAFFC
FF317F3235EFC155
8A1D0DC8EFF0122C
2813E49EB428FBF2
DBE025D3E286E141
816BD0C53365C4FA
C68F112114F41A01
DD181B6E7013BCBB
C5CF9CD704FFE7CF
B5C69CFBF75E8337
48FD215CD4FBAE0A
F1A412C8EA517F38
45CDECFC9171D6FE
86E8EBFEF6FB2D22
D1199305EC2CAE2B
072F2F0A0DAEE5B7
E6EE01FF9120810A
CBBEF12045A2F211
E4EDEE45F1E67518
EC3917E0B433A282
7F8C40CDB212FDBD
E4F9CD1AF60711ED
B91EA7C93BF1E0BC
16DED52FB011F2AA
16D907F47FF1160B
1D696DFDB6888114
FFFCEBB214CAF73A
A642CC94E799F2DE
2E2C2AE74A321904
A651FED834E6BBF3
B6F2E58D30ADFDFD
81D3E948FBD7AF9B
D53331DE3BDD42F1
4481D0ACD9DAFEE8
F4023EA3CB40E2F2
0BAF23E7B5F05F36
38260B18DF58F866
0C2FB0BAF1FDF01C
1F8110261C3FF7FD
600AE219DEFCD9A9
12E600DC04E21434
B803FF1CC738DDF7
3DFB5737EE3023E9
2E1484140224D7EC
EAFF152728815C40
03B30214EF3B47F1
C2F0DA490633DAF5
31FBD80AECDF2335
F274401633CA81F8
