01656702
206F2624
1C514415
60550101
1F110E0D
357B6747
761E605A
794D4242
313E4D07
740A1B03
26441673
4A0D452D
3F042A40
60190467
6E4F583C
62522208
4D607943
27761635
12064A58
16247E1A
522E561E
04214B44
5B461D4E
015C2943
017C5A4C
075A672D
0A0D6379
471C5E59
39456A65
5978614C
216E4C16
3D1B3C50
