385661441C2F767B1D4934797470596F
75282156752F40590A432B3056795019
226924000D10517E5B562D5C0C471701
72541603791912550B312C616F701F46
53437D6B00653E1B66242135694A4040
117C1074537236104233052D5C2C1A5A
4B332D775557777C6339763A43693E1C
7C372D6A7D52004D560B6B6E1E30420F
614A05625A20230038196E0C0A26760F
0C225C097D2D356B72125A303E3F2840
6D16275669262B740A17475E67004F21
0122761A164A285743783A474E756A3F
08461D02063D04426862125A77425E55
503A63634C032624287C564925172429
747B1F3E055519347758000A0154625B
0C2B574D4F21635964452D4F7062237A
5957294D00223B6E4D43276C026D5020
7425621200736F690B02365E062F641C
137A7C6A76343F1137463F3E5E6E631B
654C1667497250430D60513C5E165D16
47651B4653564B162A100569687C685A
5D6A16662E047875082A3624115F3617
103307341E3C167A4E2B194A16275C79
67160B155B535A2949370957762B6049
761E7C7409290D0B581C6C7B2D5B4534
2C6E38762D2A300A457906073F5A0260
6E6D2A0D7C345562660A6B1A32343F16
37535C4C1F68502A7E517B4D453D3117
5B1B7B323D0A384535594355095F0D40
083A58204E0237112A77302E0A15474A
2D2D3E3B28725B286D110E19445C1E3B
5D007D51670C454F702F350B18301527
1153261E593F2A684E2A2B131E563F25
4A29526D2D72481C761E104E2D340553
22726971571E30301F2E6A6E65684F61
292350411E74252653177B3D210F6540
77762F754B242A21022D216C7A1C1B78
144773692C773F646719580251074C1D
5F6C5711384457486873676C0A6E4722
71621E25097934314F59772E64680513
68187C7E792D32703F223D731F2E7A21
055E3A3D67470E205425394A3E1F0A36
281D06003E1B3B022B18611824056D0B
305A6D5C3C464B757C313C297D5A5A01
234B413B6C6912453F1D0F3A0A200723
5278007C052C2B6C520A58093C3B2662
3A485B16500B641B3C25536E4356231D
3E450E7C03354E30624966387A3D6B30
02133411261C6445573D2B6F12740C1A
147D1F79530863702825025D2D444A45
2F1C22772A6F03480C7D0E331E474D58
3D615A372E1E3A1515011A3867095767
7C092C5B230D5D7266221E356C085077
2B59601C4B7C25242D453D2E61723C62
5C4017074F295D445355174B2C4E6150
2C674C38455C5448232A36061F373A21
6B540053247856367D67030F4D512C04
183C6B2C6E053465474137765C3B281B
606E7D2759381B2F5612183169116351
3D6F15004B1673061436544811735D57
0A402B604C6C0D605501726774214C42
732105250941155C2E43021C4A6E0422
03193547382552513A62786F2C314013
5C241150775B36573C6C746A2E32217B
3C7920604A1F2F13336F162D7B571E50
264346660B672248353F1D652174105B
42264946646A642B372E0E5132777624
0A3C5E77583201405B1F3B2C554E2A4F
79267E197717045472455C5C7C021D10
487216127A7E6C79212F0A086D616F11
434D4161391B43366B6B482954655963
2D6A3D2C183B035623632720100F5A48
1C0560522B14720F4D4E59343C5D1470
1D127204795D5A272972363104356933
312C1210511D65784A2D077B271E6957
50203B3F044C70282052143552150713
78364671372C377C5F1767463D36407A
66082D755E505953173C251F1964717A
49063815080B23405C39457827116928
304554482710657123491A3D6A732F02
00380F08227C7719245D193B0D25556A
210C57063C2761226E1D7B473C2A3D1C
275E0B1D74403E70126A216C74700C05
0F30342E0C1E640F50364A18163F1476
1F0E203B7301685048316E7543564C35
380C087C21022448011108431F643231
242A797D2F722F794C5D035038572347
584A2E472B124E3766696E0917343D3D
11225E7169115D3E483D065113652610
4A2E474F1B3A2E5B752F56423557445F
55050F7C146A5D31771168430119533E
775F756E477301583C42317966461E59
445F08335804344E642D5E363D6D7114
350B0679643456523E28510847453F23
270B21557A4E636737260D1861514D3B
5A1337513D7209173D2F20787D0E731C
1E1E694037667E4A46736F5E48273E56
1A737701351C2C48727174485003732D
64454E59520C3B070728534657113A38
652A394964145530060754115649481F
000A0D79185838751F0C391758556260
5E514A0412120A50726C5238112F410B
0B26582845562E03740021453A537765
760E2A03402F777741466823481B1455
1D237C783D0414796F6B0846171D2129
4F69663A6C6D6027293E6D6429631058
6C0A4C5C720D0D512520493C671E3428
2B6F5A770B3E3F0F0F3E1B70455A0158
47766A363D4C6F7A257E334252686522
69221355363233401F0420723B065278
4D665C224B0471490B3D450E4A1C395E
49115774745B3E7C214F630326006632
500D6A5C14355212244841727B752C64
7C7A6D430A5A2E131573415A5E4A1C14
4A30015267206B693A294F231F786B7C
7E541201285C1E3A671A4A5F0A327C20
797E54293C5822580647042209784D2E
0C0A0C6227156B22125D794119326C3A
08245F45102E5A0D41392876721A0F0F
5371114D192A2F2515354A2270372A1C
305C754D0C5E290335027D02727E473A
380C25537E56777E59607E0C59267861
4B03235B052A76746132782E19685A4B
7A2E5C7C4E6F1114130152456E47165C
321C1E32132B582E5B786B1D4B0C6263
032D71115A37645B7B10767D28077026
5A0A0C0F6028477C043763640D745B22
022E516F622D2237137671181E753E37
