00000000
00000000
00000000
00000000
00000000
00000000
00000000
00000000
ffffffff
ffffffff
ffffffff
ffffffff
00000000
00000000
00000000
00000000
01010101
01010101
01010101
01010101
ffffffff
ffffffff
ffffffff
ffffffff
02020202
02020202
02020202
02020202
00000000
00000000
00000000
00000000
fefefefe
fefefefe
fefefefe
fefefefe
01010101
01010101
01010101
01010101
01010101
01010101
01010101
01010101
ffffffff
ffffffff
ffffffff
ffffffff
ffffffff
ffffffff
ffffffff
ffffffff
01010101
01010101
01010101
01010101
ffffffff
ffffffff
ffffffff
ffffffff
fefefefe
fefefefe
fefefefe
fefefefe
