4404480A
9ADCF506
E8433719
AD171A23
04DEFA31
19DBF598
DF14F702
1AF1DCFB
36D6F1E4
E128D24C
DE190404
394510D7
08DFD4C8
10E52CEE
E91F057F
E914E903
FE59D91F
5B310D05
E1E410CB
3F1306EC
163C1AD8
F2112D0A
3450051C
30D836AB
C5DA642F
7B262F25
153E183C
FDF5B67F
FFFB5724
64EA45DC
041589E1
2BF14270
7F0AE46A
705CDBE7
5121B0CB
6461D9C9
F4B692CA
BDC5BF0D
C1E8EDCB
F32F0984
16B266F9
E716BB30
26D6FC4D
EACE1DD4
0DB90C04
4E176F1C
046D7EE0
B9CD45B9
00000000
00000000
00000000
00000000
00000000
00000000
00000000
00000000
00000000
00000000
00000000
00000000
00000000
00000000
00000000
00000000
49D21431
EF07FACF
222362CE
D8F5FED7
0713EEEA
E9D01D08
ED1F2725
F60C0B08
D218F816
DFFADA14
BEE808DE
C20600F9
A413CD1D
7F2828DD
EDCCF811
12110B2B
42EA01DB
61150C1B
2C7CDBF3
0FDFE8C5
4B6AF5A8
C1D323D7
4211A760
D97F9B23
3408287A
CFDA140B
08B5F420
4C0C08E8
EC38262F
E14BF223
BBB6F922
F4E22FEB
53A7F80D
0F19C011
1A32E42F
18294351
B9AFD405
16275FDF
AE3317AF
24ED50F2
A7B2D9E9
BB130F14
B44332E6
01E126BD
CB320A7F
C043F974
1B285084
1622F2F9
68FC40DC
C9EED9FF
0D22BEC8
098D2C0C
0DCC0402
C913E57F
063C140A
C7C038E4
001707E0
FFF2E7C5
5706E10C
3DF9083C
DE4331E0
91261F1F
CD292703
E00ACD35
DDFAC00E
E10CEC15
1026F2E8
D60E1B0B
0314E6F7
DFDC1EE7
FB5218FE
1BF2E4DB
E6FFEAF4
23FB01EE
CE0918CB
C113E7CE
AD310615
FB47E67F
D4BDFBE9
EADFE6CE
B00B0652
AB2BC61F
002BD4C3
DA16101D
E01EF3C0
35FA110E
1FBEF8FE
22EAD039
5F14E10B
50EDC77A
7F19D723
55CAD7F5
DD201BF5
364FE946
E5DAB014
620E0C30
4226F72E
ED2A32E4
2BF82608
24F927FA
E98141BA
CAFDFA04
131CD215
2AA40517
36FA140A
29F608E9
2011EE11
E108F03F
08C02F1A
F0201F1A
EFAAC4E2
32E4CE0A
C80085CB
1E0638E2
E2060AFF
18FC7FDF
130FE7A4
00381CF3
F5D2141C
05001696
0040EE45
E42B151A
F8191ED2
FF05D6DC
6C19F0ED
FFF3D523
03F6FC01
2535D3E8
00000000
00000000
00000000
00000000
00000000
00000000
00000000
00000000
00000000
00000000
00000000
00000000
00000000
00000000
00000000
00000000
00000000
00000000
00000000
00000000
00000000
00000000
00000000
00000000
00000000
00000000
00000000
00000000
00000000
00000000
00000000
00000000
204A40E9
3713D9DD
1A2D222B
FFF73B15
F55BDEEE
23D00636
1101DB26
29CE2CE2
E2F31012
40DDF201
B10DF33A
58E3F27F
2B121845
1AFBF713
E80EF831
FF02FFEC
C727C513
0D253113
342B1CBF
7FF218FF
FD14BA16
F1D0A54C
E805082F
1C0C160C
E4152B0A
FFD6ECF5
411616F1
4CBEDD5F
0815F60A
DD19FAF9
0329D926
CDBC3CF0
0FFA46F4
ECF6002A
EBF9FAD2
161008B8
057FC6DE
EC20FEFC
F113071F
DCE12FFA
E62A0BDA
1508FB20
F2A61FD8
EA04DEFC
CFE3FDF2
DDF5F5F9
F922DBE2
191A2F13
060BFE1A
21FAF819
04D6D3FB
16F2AED5
222381EC
E33D5619
ED9FF00B
46E9D417
D22DDDE4
34FDD6E3
FBA9F70B
37E02406
0A3AFC0D
1C1C141F
281B11D6
07DC0623
C90B93FD
381519D0
C8A9CEFD
04EAD1E0
1AE2049D
FB3457D3
CE2A0BE9
AB0019E3
BAFD05FE
2504F1BA
204CA314
22F4FD21
20C35423
FDD11331
0400103B
7FF208F9
D12BCC2E
FC3313C1
5879D902
CAD2D33D
3037D545
F2E1D1BA
D81A062A
41810DEC
F113E045
12E0D92A
CE500FDC
E432E1DF
C52BF959
1102CE37
B55201FF
11FDC2EE
DE1CF657
D9FDFBF2
4428DDE1
21449900
0767E5F1
23D0F8E9
44A20518
37FE8106
FF2A46CD
CCE4E91E
FBBC54ED
1FC0DBA7
CF222BEA
DF161B22
FE531CEF
39F43742
E201D536
0BE5EB40
1C34EBDF
EE2401FD
EE1ACF43
20BAF609
1EBB090E
1805EABE
02DF6114
CDFDF1E6
27073EEE
F9E704B8
04112CE5
E3F1EA7F
2D0035F4
DDFA1E09
051AFA01
FBBECE0E
BACD6635
1D1B5E16
EC1E05FA
480755BC
07E8FCBB
0FCBF92A
8114F043
DFD92247
FEE4FB16
BEF223DC
28E8D327
30F1D506
77E1F826
E82CD015
D832E513
F52B3A03
FEDDB7EF
CF0EFDFC
7D23F643
34E23E25
1DEE7816
3613000A
B33BF52F
F323DE14
81D3362C
0607FCF1
E70CDA06
BB142BCB
B328231B
51C4F84B
14D6E315
BC350A01
0DF5F022
F40F2AC1
5316CBC7
E30207E3
D9F3ED04
F5EB1B17
7F3EF7F3
3CFC0AFF
DA260A0B
D028CDE7
F5E8EC12
221C0D13
D3E8F104
E716D806
1949F809
EDFD0FF5
3AEC240C
E3F517EF
1FBB0A1D
EDFBC232
FC02C7E8
15B42152
6827EBF6
540BF50D
8177DF17
CE1C086B
FAE4D900
3BCC18ED
9B2803BA
EAE20E30
2CAD2716
FD1FBD23
2C2A0147
576D103E
205F3E1B
D9069DB7
F4222DE5
09C47FCD
074ECDEB
0672CBF1
EF5BEC21
57CED1F8
1108E6A1
F9201746
2411E2CD
363BB89B
2622B8BE
0E427809
0BF90313
08EAD7E6
0144E0B4
D91D04C2
2C07F21E
E34311F8
AAED1938
AA19FFC8
2DCB1445
FA7FF4DE
E8D5F43E
DEFF1EEB
42F307D8
E106E3B6
D210FC19
CDD17FB9
11122F4B
31E12CEB
34E10112
2C1A024E
EBD23018
1E210C14
3DC8D200
19D4230B
0E101C0E
324201ED
23DF1A09
FEB503E1
47001C00
0344CF6E
F034AF06
FACF7F17
0C1FEBBF
31E742EA
0FE2C0B6
D9E122E2
FF46D817
11E803DB
E8FB0DF8
0AF31116
05E5280B
5D2E1603
EB2FEB56
D210090B
24DF070A
C3FBF602
EB0269E4
90620EE9
C0E9B4BC
383B1DCD
DE7FB924
B61615F7
5DF5F500
F7500CC9
5EF9F4F6
1A9E03B8
5559E6BF
15D8D8F7
5D1302C1
483F321F
20279C6C
682C3E1A
5763F311
26F90D01
3709F133
FF41D38A
EA81EBFC
CEFAFC99
0CF4DD10
07DFCCB6
213B2A12
0416F934
00BC05CC
D7A802AF
B300E08B
04F213C9
FF40D125
FACE02A4
DE369A1E
EAD0F73B
EB819CA6
EE2B13D7
E919D7D6
EC36C8FA
00A0C9D2
103EF1FA
EE2D26F6
1B6BC8C4
B7190857
FC190D0A
3D2DE6DC
391E66F3
0CFFE9D5
251B39E9
D2F3D542
04173100
DF030AD6
FCEFA621
213DB43B
21EBD4BE
BDF9F413
20F1C4D6
EFEC4040
149C04E0
BA814543
E414BDF6
CEC91143
0E31F032
2F2F5DEA
E4DB0EDB
E3DE05DB
AE7F13F4
F9F95CC8
1A231649
FC07FD5A
10F9F0C6
CC0C2C01
DB3A0DE4
E2EDDC44
1A04E3FC
C4F3DD2E
1CE91A22
0C1508E5
13001D6D
EE58FBAA
1B06FDDE
DEE83C34
05A80D58
04CBCAC0
3102C5CF
C020F18E
FBFDB72D
B65AF9B0
B6027F1A
ED2C0D8A
D02422D5
439F0E46
D60C51F0
CA2E1CD1
F6FDEB26
2FAFFEF1
24B81131
0B0DE0FF
0502F9EB
241EFCFD
08F5C9B1
FE0B1E56
F924BBE5
E713DCD6
0206BB38
7F4B0519
5950FA14
F5193214
C036F3F7
2B093921
FFD0FB41
CAF7FCFC
07201353
2C097F25
F9EE2BF7
DF410C06
FEF848F0
F6C2275A
25EFFFEC
DD09190E
27F70FBC
210E2524
E04DCC17
0436DAED
23F0D810
4E231E21
031CFBF8
23022D33
EC1212F5
3FCF2BCA
0D03D47D
1A1AAC1F
E2CCA9B2
C11D3635
CB73A2B7
61481FCD
48F8E79B
57663F45
BA7E811B
07FEEF56
E23429AF
EFF5CFE8
34CF13CD
D82DCA89
DAF43CF8
FDF50A35
D6F80C2B
C85004DF
E904272C
ED1D1650
3F0DE7B6
CDBB0234
3DD116CF
0AEB4249
D781131D
CB18FD20
00E21108
08056BFC
E40AFC22
D31405D0
E4E1F0DE
025EDDFF
EFE46081
C9404624
4F2E7F39
4F1CFEAE
EAB334E2
FB31FD37
5EDDB9E0
F4062144
0806F264
B5EBFE45
20D4F4FA
15FD6003
5794D3FF
2AD55CE4
05651FD9
F603FFFA
110D24E7
4B40F738
6E60F2E2
04032CFA
0E3CF10B
1F7F18F7
2CFFAEEE
66D13E0B
01E001F8
D739EF41
E3E92457
ECF7F240
210FCD23
09DB161E
F519EFD8
171C16D8
FAEA0CBB
D6E60335
FA0C0D2D
3FFE1054
0EDD2102
3BCC25FA
13198121
203EDE0B
33EC190A
27CBF603
C220DE10
DFC9D327
E2482ADA
19B9D6CD
0DDDB418
F10B28F4
FBCB0425
E9E215F7
18F6EF00
F00108F9
F100F0F5
29EEFEF9
ED1BF77F
130A0DFF
EC0C1601
0C11E9F7
20D1FB01
1801EAEE
E4F6F6E9
1CE9D0FF
FDEED2F3
07E8F0F0
26F5DDDF
E9E2FBD6
272013BA
37D3E6CA
EAEAB0F8
ECECE517
CAE0F31A
F713FFDE
F27FE1ED
0443D5F4
07FAE6DF
FBBEE0AE
FB00F6F3
E3EEF8F7
E832E4E0
DA1EEB02
E81F2106
26F2FDE2
C5CEC0EA
F1C6F0D2
34EBDE26
D111060D
1CC41903
E3F8060F
3CF13819
E1D0312F
F1EFCE28
CF0B7F57
DCDDB129
1BE02AEB
F2E70A59
69DD0D0D
D756D5F5
02EA9A41
A31FCADB
DE21090B
CE7F41B4
FA0909DF
11CD2212
FC12DF08
44EBBDEF
C24FF1F5
E5B03E3E
1A58C53F
13E930DB
B83F3313
EF1234DC
00000000
00000000
00000000
00000000
00000000
00000000
00000000
00000000
00000000
00000000
00000000
00000000
00000000
00000000
00000000
00000000
42A97DF3
132FC681
26041BE1
004DFDF3
E21FFAC1
24D2E2DB
2CE912B1
02EE1658
F5D3C7F1
0F0DE3A4
9047EA15
72EB5317
05F5DB45
1C27A812
2210F056
BE2F0FF7
DB116346
B4211DE7
F04CB294
555100E4
D7C4C70C
F207A5E0
52ADF256
1BD2C616
14F61968
D6EAB8EE
ABF7211E
0DEEE30E
329BB8A4
FF055A0E
FED5F97F
6AEFF60F
E9E2C1F6
00ECE2B4
26CCF71C
D42B3C7F
10E21F03
5DD3FAE8
26A8F908
FDF1C4F3
34E1CCF1
C5AD49CE
1418DE08
EC041987
F528E700
0E08DA15
09044E53
E80EA2F8
E9CF2AEC
FFEBEBE5
02E7D6FD
B6F6DE64
A154B8D5
3C3B43EF
F04908EC
D74A2D12
D5DE1C10
2DBD3BCA
34813718
F1E1DE6A
1D221411
FBCFF55E
E60EB398
EBB21065
DCF8DB18
05F40B0F
F31BD4F7
E2FF0DCA
4035DF02
1BE9F216
ECEF1F14
0FFD44F8
01271D1B
E57FF102
E1EC1817
E72BF6C2
02E502FD
FECAEEEB
FB264DD8
0EE4E016
040BEAD8
1803EB12
17EC11D0
CEF92540
AC7FCF1C
E4523AF8
100FBA14
0627BD12
FC66DBEB
FDBAFCD8
F0E6ECC9
79EBFF1A
F262FE19
25F7E7EC
E6C035E4
B91AF01C
AADE6A5A
F0E9F8DB
297AC2E5
F07F01FD
E3F3C8F0
13E8E40F
484BF1F3
FE0798F8
E728F822
CCA11536
151D3CF5
2F59C9DB
C16B1BE0
28211E4F
0CFEFE29
1F01D1F1
BBFD2EDC
12152628
32A6434A
12291C0D
FBCE2E0C
0BBCBDF5
FADF22BD
37FF1535
5A65F104
F76066C0
BFBD274C
DE0E5A03
CDE9F2F5
E5132CA3
03212E81
2D08C9F0
FEF445CA
FFEE01F8
0E54015A
33D6ED01
E77E7F4C
3F452EC3
1647EBF5
DC4AA90C
3ABA2813
3112F6D7
C2C9EE54
35F72BA5
AFEDEBFB
2F120DD1
4AF007A7
90D5EC3B
54F6D8EC
2A21042F
F9FD9A39
BBBEE0C9
DC111011
E9223217
3AFFD6C9
F01949C6
EFF505E9
127FFEC3
ECF80A19
D7E8243C
F1D9DD15
FBDEEC29
C9F723DA
F8FA15B7
329FEF2D
1EE51D00
E9F721F8
D504FCCD
24F40F13
24F41D7F
08DF3D03
F5FA4D02
F1D7FEEF
3C12E141
0B08FCBE
47FEE0FC
1AF002BF
E520F4D8
07E8E71F
C7F5F17C
C7D00F4D
6F433ABD
BE9F1FDD
41ED29DE
3916F6EF
1AEC0973
A7C8EF37
F726A9FE
08F5F9E1
19B2F081
E9E80513
EBF9D32E
B5CF1950
F64DE302
1DACDA30
2B16D4E5
0FDEB302
3A243F4D
D4E3233D
FDEEFD73
5EFE447F
66A11012
09FB04DD
07512515
50B3E92C
F6ED0CD2
ED380104
A32439A8
35C2D9E8
13C8F7FB
0B38F904
0A21F7E9
BE340220
2CE14C42
FE5CEAC2
1E143148
14E9865E
3981E80D
E8E77F1C
209FECD4
019EEC1C
528A5145
DA450CCF
59B5D3AB
256A3B01
D1C7DF4D
0EEB511E
D9DD443D
04290B67
3BE6ED39
50E7C1AC
2C36C546
12BA9505
EBE7B3C0
EE3D0309
3312892C
14FDFC11
2AF4C44A
6AE55781
3ED5A1B4
02B209C4
C908C006
22E2E42E
224622F3
0902B11C
D2F91813
18090612
0501241F
4DF608DA
11440A0A
DAB8FC14
3234FBF0
7FF4082E
2E49F4E2
55FE26ED
F31AF01A
03F52A08
222AD19D
0EC7E41B
1FDCE4F9
