8173BBE8
F7EEF0F5
E8346500
A3530596
215327A7
48F1382E
FA428F2B
0E182BC2
36E13367
63A52C81
59657FD2
E9EAE49C
D73738DC
565A17B3
1A0F2A7F
810F2BC7
A0058A7F
1FEB8139
DD237FB9
3A67DD00
F33A7B81
682C7B5D
181CDE4E
44744381
22F2267F
7FA35106
7F59F7C5
C91181B3
81EF57FF
7F11E381
78445552
9F644498
9DC0D378
8104153E
D72F4381
7F42A130
C5027F9E
3F373736
13ED3232
473E18AC
0A078101
43035315
6AF6E1B8
0C2FA7D8
E1813C0A
3E8181B2
6F5A5509
D36827C3
AF7981B4
47039058
885E4BEF
AF48E081
B47227B7
66505F52
157FB845
985B67B1
637F4E17
3981819B
3F71CCF6
F73C8FA1
56586298
575F45AC
35429D28
273E36FD
866DDE39
24383A7F
B67F71B5
E77F2ABC
947F5B8E
7F7E7F7F
686E497F
CE7F7F82
7F725E18
4CD9A61B
7B7F34AA
CB7F8581
EF2B7F99
6EBB6E91
7F7F24A3
DC7F7F09
32121763
B855525B
B43A22CF
5F35DD04
815756D7
3A472044
7FF57F40
2F4449A5
162C8DAC
233605FF
6DE4F58A
D752C4E6
18853703
409E11B6
6E727FCB
C15D3F18
E2208BB3
2F819351
C5550EEB
010914D8
973EF59E
14602B29
181FEF28
CC2D5EEF
3B712FE1
FA8C2AB2
3746F816
F366B5B5
610A38BF
262BCAC8
0A6A8299
51471E67
F87FDFE0
EECA5E5A
817A2493
9C1A8137
8E6DF984
147F1349
3F3F6740
813C5BDF
5E6F3EE7
05E40027
5943C2CD
817DD293
EB533781
16B8FDCC
136F9BE0
593A377F
094F4505
C609071B
812625BB
1206C7B4
AD7B1EE3
F6430430
4B156D2F
B01A2A0B
102EFCB3
1501EE02
1C0E9081
8E1DF3DC
E39E12F4
F6C1E5F9
FF1A0EEA
3A0D1A2D
