003A28C5
23FDE70F
17F5F64C
24430000
B6A720F3
D0E7D01F
95FB8CDF
A2071331
83D60EFF
04ADBAF7
A9BD0EE0
007F2A40
FDD875FB
050D066C
C6BD051B
3E93060F
007F00F5
0D19D49F
7D5E0468
23D10000
48474720
8122F163
CFF6EEA2
37F8182B
36316B67
0525EB1B
E603C5E6
00D1C934
E904554E
620C0559
4F09EFC8
DB2FCCC3
00498CF4
2506FF0C
186CDDEB
D26C0000
E904E7CE
48DBA9BA
D43A10D6
492C0035
263C2422
0319C00A
C4F52005
00428114
F920E9AC
A0D7F5F8
C6260D21
FC0BFED4
00D8F2CA
06F725E6
E6E462FF
B4160000
E71EECCD
B8C91021
219FE9FB
357F30D6
0AD8E8F4
FBEDDBEC
E705F814
00A930FC
1BA9DC2A
DA09FB3A
E50B22EF
C05A0802
002EBFEF
0204F6C8
1DA0A3AA
03500000
8E691687
C0BAFF45
3458E8B4
1BB21AC3
2FC909CB
631BFEE8
3EE908BA
00FEFCBC
02962BB9
0FC5F4FF
771DD1DB
43217F2A
0008006A
1CFEEA5A
B0B2F5D7
EF7F0000
E237DAB2
0FCE3A1D
123D09A7
FED60EC8
57482FEC
1C10320A
D70F0C99
00E6F007
25180DEE
243F1AAC
BB402027
F4B1E2E2
00EDD5F3
F3E84427
F0E60225
BEEB0000
EF14B121
39FEDFFF
C0F9C938
FB00FCF3
B924EE31
FBC3F581
1AE309E0
00F222B9
B31D01ED
EFC3E2D0
B5192BE9
2F0E9630
002EE9D2
15E1FED4
D9CC9AF2
E5C30000
ACFFF125
B3F423D0
FA07012D
3BDF9981
A2100FF4
462EF310
531F03A1
00FD0ED2
0D01EB1F
DB20F3DB
13D8C0EB
E8301D5F
0000087F
01E73C01
DE0B2EED
E8E80000
B3DE01C7
3A9CF8EE
18D2AA6E
A9FDDDC9
4D0120F8
FAE6FDFB
07DC18FB
00C4A2E7
FA1B072F
22CCF9A2
F34C9116
DAD2DDFF
0012D42F
B5CA1D0E
E0256803
4D450000
1A4D21EC
1411FBC7
4B3CDCFB
C71605ED
CFBA2428
01E11A11
4101271F
00051987
24F77FA9
CA0DFFEC
53E9BC0E
ECB8F59E
000A1217
DFFA1B41
10C754B5
20150000
11EB2417
FCCA18FF
F70C221D
FF5BE713
C219E471
16F9FB0E
E4DA0BC5
00FB0ED8
ED302DD6
F0110E0B
D6EDF95F
E5297F3D
0032BCC9
F027DFA8
2B57ED24
58280000
07062D20
BB1DBD3F
0EEEFFF1
03100F26
3837150C
761C1FEE
C2290621
00FBF710
FF1E526A
6815EE1A
1BB07FD9
0FEDDF0E
00FF0CEB
13FD0520
03C410E1
16F40000
ADAF0035
08CC2448
F7FB81EB
C7D5D8DF
F20DFADA
FD4D0226
02230016
00E0F429
2F4CCF16
1808D9E1
414DD1F6
2D1A491D
001017A5
DDD5F10C
0BDD73E9
1AF50000
C02B46AE
17DE2239
EAC11CE0
38092281
E31D1EFD
1A14DB01
F6160CCD
0008FA2F
D309D8EE
15262913
0EF33CBF
D62CFF5C
00DF17FD
0700F631
18F7F7C3
F9460000
CBCFDBDD
E1D0E805
E603AB0A
0D94BBEB
F3CDEF27
DA00F044
DFE50856
00E1B2F9
13D3D2C1
0BDDE5C3
386F36E3
B17FF824
00BDE8F0
22DC09D6
09EC1F7F
00180000
2EE870FB
052FD410
39D51C4E
C8273AC8
75EA1853
D203EC0D
0F05CA0F
00EAF01E
49CF7F5D
F40DEEE3
920DFE14
ECE422DF
00D5EB38
10FC0316
DFE4A300
ECD20000
C0AFC909
7FCB09E2
3FDB0C3B
EE00F1BA
22E319D7
402F1557
346DDD0C
00E1F9EB
09C10F60
CB010E85
001BD5E3
19DA4F9C
00000000
00000000
00000000
00000000
00000000
00000000
00000000
00000000
00000000
00000000
00000000
00000000
00000000
00000000
00000000
00000000
001E8E0E
02E4044C
CE9D3C95
FF320000
12073CC8
DBE03AEB
0E25055F
CC02F561
1C03C62A
359416FF
15E702DE
008145E9
EA022524
D10A10F8
0C58DB10
DAE290BC
00000000
00000000
00000000
00000000
00000000
00000000
00000000
00000000
00000000
00000000
00000000
00000000
00000000
00000000
00000000
00000000
003BFC07
0A001816
D90933D9
1A200000
D919F812
02F86A19
1E0CEE04
033B12CB
E40913E1
09161903
F7030AE6
00E2FFF2
07FD05EE
DE080CEE
633EEDFD
097F460E
009DE75F
1A010CC8
170B56CE
09ED0000
D7C11AE6
C4DDBCAD
E2E1F449
2813EEFA
AF52F93D
2EE1090C
81EEC804
00CBE041
0A222E28
9200F570
1CBFF5F9
B026E824
0048B3EE
23F62C3C
06470BE4
1FFD0000
C242EBEA
11B4C00B
26050FE2
160D3012
CF1713A4
44FDF1DC
0E46140A
00BE44D0
34BC7F36
111EDFEF
56DD11E0
32F2DE03
00000000
00000000
00000000
00000000
00000000
00000000
00000000
00000000
00000000
00000000
00000000
00000000
00000000
00000000
00000000
00000000
0009F5C5
ECFFE802
F0021549
060F0000
2E014AF5
BD09F7F4
F6AC0EE9
D95FC9E2
DBFBD4F0
DD1AF3F8
E7000643
007F25FA
08BCDCB0
EDDF0717
1A13E500
0916E301
00000000
00000000
00000000
00000000
00000000
00000000
00000000
00000000
00000000
00000000
00000000
00000000
00000000
00000000
00000000
00000000
000A4211
FA1B1929
1DB0FFE7
F7F10000
1092FE3E
0A6CFD2A
23AD0435
A451C4D6
DA810AF5
D6F1F515
C870F0AA
00C1E21B
02F8290E
18F5F9FF
E00EB305
021AFA47
00D54318
01F005D8
D3B50E02
E5FD0000
BB2AF7B4
5439D40E
422EE218
2014F69A
2422E5E7
79C4329D
CA81E3A9
0024382B
1D0842BC
101EF908
A091A8E1
29B3FE1F
00F63C13
07FAE174
2A33D5E3
DED60000
FD4B9814
E33A1808
E8F9EBE4
E212CE74
F211EFDE
320BE1CB
4B2A0CFE
00E62E07
0003F32C
1FE0D07F
E3BC2028
554600D1
00D80010
FBFCF341
2FD4F6E7
EAB50000
D8C30EB3
26A4FB32
0CC6D525
35CD36ED
51122F35
E6F7DE1C
E5030A18
00C5E27F
F407DFFF
00D2EAC5
04EFFED5
04CB16BF
00000000
00000000
00000000
00000000
00000000
00000000
00000000
00000000
00000000
00000000
00000000
00000000
00000000
00000000
00000000
00000000
007FADE5
16182357
D2CE16BA
251C0000
0AF43411
D3AA1CDA
F60BF992
01F70363
FDD709FF
17D9D03E
8FD021EC
000E22A6
D7000E0E
DAE8F60D
CB2007DC
500B0E16
00D914EE
F7FCE711
09E70719
E8E50000
2F05F01C
D712DAFD
D2ED0BE5
ED00092B
D905F20E
25020B12
7F19183C
00EA0AFE
ED2D2CE7
24F4FC0A
1510EBF0
1D1DE4F0
002ADD10
F12310EC
2505123D
1D310000
19EFFE00
E40FD4F2
0D3F12D5
3B590FF9
F23D1CEC
E611F6E5
E4D90510
00DA34EB
C8FC7B23
072C1635
1E1C7F07
161F2524
009E2421
06FD2C04
BD54E815
00440000
C42F10EB
18D2A420
FC154D5B
C4B53D81
B3F6F2F8
E5192AE2
2EFBF7DB
00D2D1B7
F83313E8
5202DAE0
5C241ED4
39E41EC7
007FD4B2
F0092A61
C02807A0
0FF70000
D9CDDE2D
FA7B0423
3F4AB631
E902D621
F3512319
0FDDEEE7
ABDEF7D8
003DD6D7
06F2E101
F1F2FBFC
BBE6F2F4
1B46CD70
00F1D2D3
1ADEDBE0
E1EC19E7
EA7F0000
052CF1E7
2F11E9E9
0A3AD020
D5445633
28EE0C3E
E503EAF6
E20DF4E7
003307DC
19E028EE
EE5407CC
4AE445E7
D33B27E7
002101D4
293027EC
21D4F234
08030000
E0113829
0CD34A67
52ED06C7
4E05E9F6
81C620F5
DC11F00D
371AC623
00F9F70F
F903262B
E4F315EF
EE04FFFB
291814C2
003E3B01
D8F6F626
2000EF1E
F1060000
28AA2FC2
0DD50DEC
32493F33
2C3BBD91
3C5CDDA2
DDE94029
81C62908
00C037CF
1315049D
F9E703A0
5717EE2F
5CA19123
005CF55E
1D55E7EC
583D110C
D90D0000
2F121D34
0C1A05F0
AB01CB7F
3F8E0307
EDC9E210
11D6DDE9
CC4DF02C
006DEDEF
D2F5FD2A
34D914D3
C0E23517
FE2DEF13
00FAE8F7
CEE5EF4A
E9FAF515
0F040000
212A90F9
D74A12C9
282E040F
FE5EA4C7
0F7F20E4
0DE50F01
C4B41307
001B33BB
03F30BAA
E5D9FBDE
E2FDDA23
38D5C70F
00A70B81
FDCE3439
D8980BB9
0EE50000
DEB424E4
25F22922
25FC12E2
5B0E11F2
1C4FDDA2
08310212
23F318C6
00C4DF55
FF7DA7E9
03016A1D
11FDE901
EE101800
0061CDF8
390DE8A8
3C28973C
565F0000
412C7FB2
C4A09A27
0CDC1B0C
F6B3E2E2
00192CE3
083DED3E
B52DF731
00F89109
1BB72862
E9F40824
7CCE3AD9
D9E99CA8
00EB0CFE
023A04CD
E2A7DBCB
1C130000
DBE1FAF7
D8E859B4
08E6FCCB
7F68CFDA
C57E23C2
292016CA
0922E5F0
00D2EC51
F420C662
01FE0026
37D43A44
CC1F1C39
00000000
00000000
00000000
00000000
00000000
00000000
00000000
00000000
00000000
00000000
00000000
00000000
00000000
00000000
00000000
00000000
00000000
00000000
00000000
00000000
00000000
00000000
00000000
00000000
00000000
00000000
00000000
00000000
00000000
00000000
00000000
00000000
00FCBACF
B827240C
C7011D08
3D3F0000
ECDC0313
0EDBC849
2C1BF3F4
E4BD3681
B745EA25
1B401A1F
F7470AA5
009AC347
FCF03B24
0C4C181B
DBDA1ED3
D9BB1AE0
0006DC0F
12F2200A
CE2A7781
B7FC0000
E8E5D915
F9CFFECF
F4FCFD4A
DB0D0163
C556FADA
210DFAFB
1338F305
00074606
00CAEC46
B0F7EF2C
5EF3130B
1154EEF3
000F2BF1
D5EA2A8D
4F02C62A
DBE40000
D543BE64
D1C0D038
D150F481
E22A8E20
F54BEDAF
37D70BD1
FDF8F931
004908D7
FCAC12E0
5DC5FAE6
07EF0D17
1948E343
0025077F
2CFB034F
2F42F905
160F0000
01E51817
0EFE0ADA
0DE51266
FCFEC6F6
03BD071E
FAEC133B
E842FC20
0006C81E
F2FCE01A
0D00FB0A
F520AF40
DE06DC07
00CD2108
D60E135C
21EF19F0
2A1A0000
A9BD0941
06E1F6AE
470CE9ED
19D6EAF2
C17F19DC
24132EE2
6B51F3FB
0007E70B
070FD11F
F5DB2241
DA0E0221
12C60112
000AF20B
4E35FB37
FEF69816
F32A0000
BF06EB1A
1FF417ED
1EE92AF7
568FF19E
E50271F9
0A381FF1
F081F89F
00E4A415
2EFEFCCA
E7FD1DBA
1DE1D8F7
F3A2F92C
00C5C9D7
131E00BA
62D7C2A4
2BE70000
E8B5E7FB
0D5A7BC5
2AFD8FEF
53CFB969
1B55C727
E7C8BDB7
7D2B1A7F
00F6F914
C94CEB3A
11E9CEFF
2D44E7FB
C22BE67F
00000000
00000000
00000000
00000000
00000000
00000000
00000000
00000000
00000000
00000000
00000000
00000000
00000000
00000000
00000000
00000000
00FB0C7F
BDDE2F58
F9FE3531
10A10000
F7D1BD2F
B65BC5F5
93B95E1E
2CD556BD
DD533CDC
0071C975
E9F0FCE7
009212D2
0C0BFD0B
6516F434
E642FDCE
F00D13DF
00B40DAA
19D3203A
FDCDFC1E
18C30000
40ED27DB
7F32E152
53B7E8E8
A9073BE0
30E8EA55
DEE8F2F1
DEE60619
001F0A18
DE1117E1
CB1403C6
0931EEFB
EBF018A0
001FE8E1
0FE008A2
B1317DDE
E0090000
EC21F12C
F4E51B35
B718F59A
E8B07F26
340CD003
0BC3E5B4
7DD4FCFA
0012F8E2
13D5B6EC
E35EFEAD
CED7DB13
D0495408
00000000
00000000
00000000
00000000
00000000
00000000
00000000
00000000
00000000
00000000
00000000
00000000
00000000
00000000
00000000
00000000
00081D3D
FDFB00DA
E5D5173A
F3E00000
0E0E4808
1EF924FC
0508DC21
DAF61EB7
0C03E117
0FD91F19
CBF411E0
00060CD6
1E1008ED
7FFCF3E2
B3EECDFE
02EEEE0B
00000000
00000000
00000000
00000000
00000000
00000000
00000000
00000000
00000000
00000000
00000000
00000000
00000000
00000000
00000000
00000000
00DE2AE6
0C0E2AA5
D3E8094F
CBC90000
D328316F
42BA17DC
1DFFE609
DBF613B5
D81C0517
31FE1BFC
FCC5FDC1
001FEEAF
0CF602DF
24FD3387
02EDEC00
BC81ECD5
00D3F3F2
01F80A67
1D02FD02
0C140000
EDEBF4ED
0735EFF3
16C8D810
06E2D1E2
E006FE08
E91FF711
140905FC
00E520F5
F0F5FAF3
E0E80D0C
427FD8FE
11160900
00F89801
0815422C
01FB1329
38680000
DEE9080D
F360AD31
FFFABBD0
09E00524
DF02F9DA
D7F3F5D1
B4ECDDBC
003CCD7F
14EA3009
DBD90D4F
193B3BC0
462B34AF
00541D55
E8EC0355
101EFA9E
9E2B0000
D1B7EF5D
EDFEA6EF
33F9CE22
012D1B1D
06160DCD
8148FD0B
9B25F5C5
0036D1EC
FB350AAE
AF03241C
B5262EF4
3243BC0D
0024F449
04F40DD3
07E32C09
13030000
D2EF0B1E
B9E17F2B
E31BF6C6
2015E708
DF2AEBFA
10E61EE7
1FD606E1
0023DCE0
13163105
CB0226D6
98EFDC1B
1EDA4235
000A0E24
0B00FE06
E8F320BE
222F0000
06CC75EF
F9E0D70D
EE073CD4
C40E3AD7
41FDDAD4
11250E1C
DDF717DC
0002F405
EB0103E8
C5100227
7FF1F41F
EAC91FF6
002DF42D
E3CACEC9
0B64EBFC
05350000
DBE9BF16
0C90DEA2
B4DB4572
52B62A89
1CF90ADF
142B27D1
9D4BE70B
00AFBE25
FE0BDA65
551FF3CA
CE507F06
1BAEE00A
00000000
00000000
00000000
00000000
00000000
00000000
00000000
00000000
00000000
00000000
00000000
00000000
00000000
00000000
00000000
00000000
00000000
00000000
00000000
00000000
00000000
00000000
00000000
00000000
00000000
00000000
00000000
00000000
00000000
00000000
00000000
00000000
0071EFD2
EE10103D
C2F8B32D
297E0000
C1CE2914
BAD9F4D5
7F213122
6D8A5676
8BE324E4
0BC701CD
0BAAE1BB
00430D00
DCD6E9C2
0F04596A
3A8A6DFA
0065C5E6
0029F21B
F031F70D
0F162500
29CA0000
3945F51A
DC17FADC
2F201F7B
217F0539
18F5EC35
F8EBE6A1
E4EBFB12
002226F2
E80EE0FA
43E9F245
113C252C
D621F1ED
002F48F6
2B161618
C5AB53E0
FD240000
81921EB5
F5037C47
36E5E2F2
120E32FE
ADF734BE
140E180E
2DD2FD0D
00D0DBF8
07E9740A
67EB00F7
FCDF35E4
04383BF4
00000000
00000000
00000000
00000000
00000000
00000000
00000000
00000000
00000000
00000000
00000000
00000000
00000000
00000000
00000000
00000000
0010CED1
21160F1B
EB1204D8
261A0000
95031BEF
BFD2593D
BC190FB5
FA25E9E3
ADEEE1CB
EC371B10
ED96CDC7
00C4F1D7
34C77FFD
D95EFEED
31E61DD5
29732A23
00B0D9D3
48FC2001
0EE4FDCB
13D00000
BCDC36FE
04D30335
C1118331
0FEFE2FB
20C881CA
FB8F04CA
02070210
00E6D919
2FD4AB32
1F99D4D6
0168DB2F
100905F6
00E1D9FE
1CD404BB
FFFA0F4B
D8E70000
291BB09C
DCD14512
EBFE1C0D
FEF06D36
7FF00435
6812E536
1C960DFE
0023D349
0E3617C1
D531DDE9
D5A83CD4
F9CC0D02
003EAB1C
2117120B
106E122C
F8430000
FB10DC0E
0A1DFE0A
AF33D269
FA1FEC13
EF15E918
25F6E80B
BFFDF2E5
007FF309
FED01FFB
FDCE2FD5
F24709CE
CE29F9AC
00FD1218
F309097F
29D6E3DF
FC5E0000
00C5DD4F
BF3CE82E
021B3CC1
EF20F623
92E3069C
F0510224
FCE5E8FF
003F2D47
F9E052DE
EE141330
291B0408
363A772C
00000000
00000000
00000000
00000000
00000000
00000000
00000000
00000000
00000000
00000000
00000000
00000000
00000000
00000000
00000000
00000000
0026D1EC
18FCEB16
EEFBE5FB
F7EF0000
FFF7F608
04090DFD
F2F70018
EE1E09EB
F9EA070B
F2FAE616
81F501E1
000CEEE0
E50FF4E8
E1F410E8
FC060713
FD160802
00F56CCE
27A6F8F3
30A3E41C
E8F60000
13A8C14F
0E0764EB
211B2C81
18CBAE30
F316DDCE
D0110D06
2E15E13C
006B66F8
02BBD4B7
4500190A
0430FBDB
43D31A5C
00041581
FAEAF830
F2F9F03F
02C60000
2C2E7828
E3F125C1
47E4EB9C
39FDF208
FC3538F6
F31BD7F2
06082BF2
002E0014
D36F1FF3
E212330A
37DEEF20
E210F0E9
00ED1F6F
2047E20C
B9DBEFC0
135B0000
D9E5F80E
D9CE33EB
EC3D05ED
2716B7C9
31F7B1B7
7F3CFC05
C7F6DAE2
00EFFE06
EDFB0B26
A02E06DF
D96C0F35
FBD65F07
004002B2
3AF638F6
ED0EABFF
F1030000
E016B801
F8224116
EE02B5E6
30D486F8
CFE220C6
7FED2602
F011E5E5
00D7EDEB
D6DFB24D
0C201CC9
4219EFD9
EB19E324
002F2205
1D1F3231
E616BFCE
03E30000
C8D510DB
0FE77F14
2E82CE1B
29C40922
3FEE3B38
3EE12A07
D3E50406
00C9E419
1CE5000A
1B0513F1
0C07DBE4
2F13C8E2
000C3208
061C0818
130C32BA
10DD0000
21B00002
DEEFDFF6
DEF6E47F
BE15D9EC
FF1636A6
DAC61510
05BC06E9
00DDB2DF
D8103136
4208FBF6
F086BF56
1E75D59A
00B2C49E
FDABDD0D
254681FA
263B0000
1309B618
BD44B41F
25ACF1D3
EB366FF8
44194A42
27EBD95D
1AD0DC19
00FE877D
D0362B24
2CEFDD4D
FFD12FA5
2792E806
00000000
00000000
00000000
00000000
00000000
00000000
00000000
00000000
00000000
00000000
00000000
00000000
00000000
00000000
00000000
00000000
00F1FDE1
401C290E
EEBD1BFD
10F60000
1BD6F60F
22CCD505
7FD2EC01
3219F3E9
FC1D63D8
560702F9
27340233
0007EA2A
E1EFE048
DD05F716
FCCAC2FB
F9C39EFA
00C70110
E31E1DF2
F01FDED6
F9E40000
3C27103B
CA5F05DE
F8D9F338
0EC04A8E
B781000F
EF10FD40
0D2CFBE7
000FF01A
2A281A42
34300116
4257FBA2
E109EEFD
0090E8C7
0DD51902
2DE3E0EE
3A0E0000
1EF203DE
DFA9F1EA
EDEE061A
2E38D5B8
FB202AF8
162C05D0
070DE617
00EFD106
131400B8
DEFE12FA
7F3AC4EF
DCF149DE
0081D8D1
06E20BD6
E8B57BE1
451D0000
33FACBF4
BC39F93A
66FDC3C8
414A13BE
F56C1F15
06092EBD
39AED1DC
0002E0DF
2A127DEF
EE1E32F3
3DD9DBDD
D131EF36
00BD3623
DF1EF302
4EE1BBD0
E2180000
00914408
D8592BDB
C013F7D8
FC4F9D7F
EE04C4F8
1B0BED11
29B4ED3C
00022B0D
E3F90FC7
DED8FA2D
A7A552F1
02EBEEF8
002D1122
19DA2FF6
F7E7AF4F
11DA0000
D9A3F527
21AA4FA6
08062B81
2335D98E
C845EB70
7BBF3426
12F70A10
00CD346E
06010F1A
902430F6
B0372B1E
FCB471FA
00000000
00000000
00000000
00000000
00000000
00000000
00000000
00000000
00000000
00000000
00000000
00000000
00000000
00000000
00000000
00000000
00F51704
16EAD1D0
2C4E9B5A
0A790000
7F0B1812
D821E9AA
F0F6CFDC
FA302EF3
5011D246
0DC9FC11
DCDFFF9C
00614939
28E41BD9
961C1E48
11D0F30E
D3B5F0DA
0081D612
DEF4E8FB
0EC03A48
C9BB0000
0DE5C7EB
2B21040D
EBD11F1E
E2E3C693
1EC8F24F
4D09FECC
1837071B
0008422C
FA13E84D
1303F1F8
F5B650DB
E3D21740
00000000
00000000
00000000
00000000
00000000
00000000
00000000
00000000
00000000
00000000
00000000
00000000
00000000
00000000
00000000
00000000
00000000
00000000
00000000
00000000
00000000
00000000
00000000
00000000
00000000
00000000
00000000
00000000
00000000
00000000
00000000
00000000
002EFE2D
23D9FCDC
D725EEF5
0D150000
0530F506
1E34E59C
D6F7E77F
05EB44F1
F81B0706
F5FA2BEE
F8EDF5DA
0025D2B5
3BF51D18
3AE60E0A
D9159ECF
D636090E
00B34228
05E7D807
DBCF28EB
4D300000
D3C2BB0F
FE070E1B
F7FCE0F0
123DE8FA
81F2D1BD
F2F319F1
03EC11B7
00EB3217
1E790DD5
CD242222
04DD0612
EC17F4E5
00184101
F247E617
F0F818F1
300C0000
FB2FD226
0C26EDF9
101FBE7F
EA19C2E4
B431E71F
EBD905C1
0218E0F5
0023321D
EE36D722
ECF81B2E
CA10ED20
09D84414
00BC0F19
FFF0F1D1
6C1C0D6E
0FDD0000
09DA3BF8
C1E3FE03
EAF37BEF
53F2FAD9
7FD9E618
19F2E90D
0B88F750
00B9E507
07CB0AE3
94072520
A443EDDE
0EDFBF20
00000000
00000000
00000000
00000000
00000000
00000000
00000000
00000000
00000000
00000000
00000000
00000000
00000000
00000000
00000000
00000000
00000000
00000000
00000000
00000000
00000000
00000000
00000000
00000000
00000000
00000000
00000000
00000000
00000000
00000000
00000000
00000000
00FBFDDF
FCEE2DF4
040CA305
25BC0000
0B8E07AE
BFE92269
33EF18BF
0CF2B857
701FF74F
088EF7DE
DCAD0BF9
0031E24A
26BDFE24
A7FEF102
813921D2
1DFB1511
00DE2728
102AE815
CFB481D9
D1BA0000
CECE0F1C
252138A5
203CC6EB
FDF1DE16
1B0ED3EF
561B00E3
F737EADF
003734F5
EF01D5BB
BFEFFDCB
2D321324
FEAF69E8
00BEED09
F8C21A02
E9F3EFA6
BBF20000
FDD2FA98
EBC4F229
D37F1E52
0118E126
2358DE4C
A9E40EE9
1BCD35E5
003503C7
EDEFE712
5A0E0AD4
E1C8B65A
29CA0A30
00371ED4
EFF91AFF
F3DCD80D
13010000
F2F3FBF0
F0C7084C
220D2EDB
2BEE0DFD
AD0F0B1A
EE09E7FE
1FF906EB
00D81DFB
DA1A0A44
DD3223E4
C4D97F2E
FEFEFAE6
00FA0FDB
00EB3BF4
BC1FCDDF
F87F0000
E2F31626
D61D07B6
C22E05C1
1007DEDE
CBF3DDB9
CB3AED56
28C6FB00
0012C50F
F521B6F3
12FB0739
1DF9021C
1D023E2A
00000000
00000000
00000000
00000000
00000000
00000000
00000000
00000000
00000000
00000000
00000000
00000000
00000000
00000000
00000000
00000000
00F316B8
C61116DA
0CD6D0B6
D40F0000
81161EE7
2EC11126
23F02743
FBBADD31
FE443CDC
3D4DE814
E8E6E6D5
000CA726
BCE6EA26
D40A024D
FC962AEF
F6FF4021
00FD0EEF
1BD5EBE3
2540C924
15220000
D1B92C12
0EF802F5
2F09BCAE
EE1110C7
7B6816BE
00EA0D24
E7B40BF3
00F70057
EC1B54E5
7FEBE2E5
3206BA02
1E980429
00002B77
3AFE07CC
08EFDD74
BF130000
BF07E71E
F6F2C7F4
D054E039
DD29818E
CC01C9EE
3EFB0A94
32D0EDB0
00B0392F
DA1858BD
AF08F1F5
DB1154F8
32D61EDA
00FA0425
F014DEE1
F90E2912
F3BD0000
FE02016B
24050707
06F81533
E51AFE81
EF13AFEA
21FDF7F7
02F708EF
00DBFA0D
36471C2B
2F09DD03
D3F9D819
E6F1EF08
00E808D2
13E42007
BBB45CCD
2A470000
8C8110E7
CEB52762
6505D2CB
060A49DF
AA2E37B0
13D2F6FA
5E0110C8
00A4FE11
05EB2A28
F53B31F2
F1CC2014
DE101F06
00E0C7FC
F7DBF31C
0602FFEB
3D3F0000
DF7FEB0C
1E332640
041202B8
2FF10CFB
CFF218D0
FD59061A
6821F4F7
00DB2A1E
FBF451D8
E517279F
4AE4459C
081002EF
00B1ECEC
1AF300FF
E2082CF3
FC0D0000
C7E8F2C4
10C5400D
0DFD5403
635BEB04
4AE4E70F
71EC2D31
7F1202FB
0004F017
00FCEDF3
952325E6
F2E4E049
C60444D1
00E709F5
FAF30C2B
E3E3CD1F
24BF0000
1DEEDB09
2AEAC4F4
7F09F6E2
051E10DD
13E3F50C
EDECCC15
E62AFBF4
00D114EB
052F7809
2006BCFD
1318FCE1
062DA6C5
0032E72E
F5D12F6C
E981D8C6
305D0000
222046BB
10351D1D
E8D3F1A3
F1CA2D32
03E1E625
48F5F312
DBD633B8
0047242B
30D3279C
E21430F3
DD29EEF5
21BEF2BD
00D4D434
23F31B00
18E939C9
F54D0000
D9D3D2FE
DEEAC804
BA11CB2E
097F0B08
E6F316CB
3144250B
F9E50DC4
00A51DEF
1BC47FEE
EF28EC26
2CF0F8EC
EB76053E
00CC21BF
E1D1BDEF
10EFAA2C
0DF50000
3CEA7939
C52DEAAA
6E8F174D
2D2A949F
8D55106C
1856F6EA
28370518
00B3182D
0C330734
23FAED58
5D81AFF4
E993C510
00E51CF1
1AE64DDD
01A50C29
D30D0000
BE170DB6
5FE8E456
2FE0C94B
03D149E4
11BA2C11
BB23FCD5
CE0A1AE7
00E8C900
FB21D9E5
7F2BE2A4
5DD8EB31
12CBF8DF
001E0AF0
E3E4111A
EDF42CEF
009C0000
BEEBF322
F8051F53
DCCF0C1C
EC17E4A9
ADFF03CC
EEDECFE2
BD2CCCBB
00C1D01F
E94FD87F
6CF4DCE2
D903E309
FF42C172
00580504
FB1C2DD1
E4B4BE02
3FB90000
E1CA0413
EBE54F7F
20E0BFDB
7D04C220
AC08374D
D4C0F9E2
47CF0010
008C2BD5
2A01354C
A60DE79D
9005380B
CE60CE32
00F4E7B7
02E33542
DA121CDB
25060000
CB08DCB0
D043F121
1BEC2CF9
F6E3F7C7
6FFCFB0E
2AEDF321
2CFA02C3
0004811A
FC23000C
A6FB2011
106619CC
F9D6070A
00C7161A
E5E7EDD2
E5C52DD4
F7060000
C1BADAE4
E7DC03E3
1A0C250D
CB27FFC9
99092CFC
4A50401A
3313E706
00C3A544
013062F5
D8EA1007
0A81000F
07B8320A
00F1E8D6
F30EE940
CAF6A202
F0BD0000
D5421B41
7F24D73B
0F2DB817
F9D1D5C0
D36D25A7
4D201D45
EA43F995
00F60B09
F72ECB39
0F2C43EF
3AE8CB25
C0DAD9F8
