00000000
00000000
00000000
00000000
00000000
00000000
00000000
00000000
00000000
00000000
00000000
00000000
00000000
00000000
00000000
00000000
00000000
00000000
00000000
00000000
00000000
00000000
00000000
00000000
00000000
00000000
00000000
00000000
00000000
00000000
00000000
00000000
E63FF4FC
380B97CA
F496EA1A
1F2724B6
001C00EC
00DBDB00
564200FA
B6003128
0B1FE9D8
EFC00006
23F6125D
2EFB0000
DD91ED46
08080040
00C50033
E0B50C15
0002FF13
51183900
3A045400
3700AEDE
5D0EFBEE
0037BBEC
1E09181B
F100DC13
D70000C5
00CA0217
D4390900
08001406
343EBE11
FD1F07FB
CB7F09BF
FD05CE5E
1E212CFD
16063CA9
1A00EF3B
37282FCF
000F00EF
00D6EC00
D9470031
21001A2E
D82D17FF
00CE1BFC
CD30EFF3
CB240000
0010FE1D
C4310032
00340019
01071426
00FD001B
D30CFC00
23CAD800
0500CD07
F431E899
001D4524
E0628112
FB002C42
16000044
00C7F4D3
F81AE000
E100F7AB
021BD617
1509EE12
EFD208C1
01BE35CA
251852D6
44EB1300
10C3E4FE
C2DF09ED
00BA0012
00FAEB00
FD010034
140085DA
EFD1C92A
0DEEE804
2E083B12
C2BB0000
0BB419F6
F2EA0032
00EB00DF
28E439DE
00FA0022
76F0C300
81C81900
EE002EF1
E5D3F8FA
004645FC
E96E36F6
E600F11E
0A0000B5
0002C1C1
FFE14C00
FA0007FE
1A180618
F7EC73D3
5409090E
FEB4DD5F
2D46F91C
02A91208
11C40F1E
28D8062F
00E700E2
00EBD700
F20800ED
F0002510
02100108
2D241806
EAE7FA0F
9DF80000
F41AF3D7
F5D200EF
00EE0003
32E630FB
00210019
1DCC1F00
F3E0E800
F200B611
1EEDFCCB
009A091A
005233F4
DC0021C1
D3000051
00FEECA6
01042D00
2000C2E4
3ADADE40
F042E80B
220D0A11
FFE07F52
00000000
00000000
00000000
00000000
00000000
00000000
00000000
00000000
00000000
00000000
00000000
00000000
00000000
00000000
00000000
00000000
00000000
00000000
00000000
00000000
00000000
00000000
00000000
00000000
00000000
00000000
00000000
00000000
00000000
00000000
00000000
00000000
2BF1950B
0E0A74D6
81F92C15
1F29FB1C
00120023
00FE2F00
4B0800F2
C000F1AE
FBEC2208
D28614FB
36C915D4
AF210000
9F0B20B7
45E300B9
00E90089
1CA4FFF1
00ED004A
5BC80400
39F14C00
D500E5A5
C3503BA7
0017D8CA
52C8B67F
E0008E91
18000043
00010844
3EF6D200
2300624F
27F6EEF0
32DDECE9
0FC3073E
034E1B5A
18F7D628
0F2424ED
34D7F92B
2A09FCEA
00FC002B
00FCE300
1CDC0041
F3000DEF
042801D3
F30A33FE
37300036
3BD70000
2D67EB33
1B070005
001C005C
1004E93E
003801A0
DFE63400
DD16B000
EC00DD22
EDDFD91C
00211ADA
DB180F10
220043E0
260000D8
0044170B
FBD7FE00
DA002C05
DC15E61D
26E72E01
0C1A0581
020BEFC8
502B02E4
F51E1ACB
EBF3DC11
21461883
003D0006
00FE0400
121500D1
F900B3FE
0FF9E319
F53A1803
19C6FEE4
BD290000
962D17E7
FD0F0028
00E500CC
EC98A4F9
00350133
DFBD0600
0FCDDD00
1B00AD04
0FD9CFFE
00E4DD1F
F47FE9E5
FD00DDE8
28000004
00B52AFA
FDE64A00
E300F4F8
C4143FBD
0ACAFAF8
4817FA03
FEC9C609
01E5FF5F
3DFCE23D
E4EAFAEC
FA1B21E1
00220031
001AB400
12B000E3
BC00EA01
E0C9D632
DAF8F300
0BE9FEDB
81EC0000
4FF1FAAD
45120010
000100F7
DDF7F101
00F2FF02
EEF40B00
53E21000
2200EBF1
30E3FB0B
00B7BFE6
33D461F1
430007F8
EE0000F9
0030EB0A
0D00C900
F5002EF9
AECAFD23
540A1107
3F19F9D7
FD2611E5
00000000
00000000
00000000
00000000
00000000
00000000
00000000
00000000
00000000
00000000
00000000
00000000
00000000
00000000
00000000
00000000
00000000
00000000
00000000
00000000
00000000
00000000
00000000
00000000
00000000
00000000
00000000
00000000
00000000
00000000
00000000
00000000
4032A2FE
E63030C2
EBDDB812
4F6749CE
00F70034
001B1300
053700C6
CC00F5ED
F9E2260B
A8A7DAFE
20BE2CB3
C2C70000
C8442AE9
022F001E
00AF00D7
E974F4EB
001BFF0E
48CE5300
392B3200
2F0081FB
EE1D1742
00C8D401
4109EDDF
F200A6BC
3300000F
00E3210C
1B1C1600
1D00FA4C
DEC715E7
EB491F36
D3DCFD1F
00781BF6
00000000
00000000
00000000
00000000
00000000
00000000
00000000
00000000
00000000
00000000
00000000
00000000
00000000
00000000
00000000
00000000
00000000
00000000
00000000
00000000
00000000
00000000
00000000
00000000
00000000
00000000
00000000
00000000
00000000
00000000
00000000
00000000
00000000
00000000
00000000
00000000
00000000
00000000
00000000
00000000
00000000
00000000
00000000
00000000
00000000
00000000
00000000
00000000
00000000
00000000
00000000
00000000
00000000
00000000
00000000
00000000
00000000
00000000
00000000
00000000
00000000
00000000
00000000
00000000
00000000
00000000
00000000
00000000
00000000
00000000
00000000
00000000
00000000
00000000
00000000
00000000
00000000
00000000
00000000
00000000
00000000
00000000
00000000
00000000
00000000
00000000
00000000
00000000
00000000
00000000
00000000
00000000
00000000
00000000
00000000
00000000
07F32D26
F3F019C6
091E21F1
DF1D2114
00CE0012
00F4E600
D9E300F6
E300C22E
0332E892
1A0202F9
13040046
1EF60000
2407F3C2
11350031
001400F8
F82A322D
00E00014
3609C800
21FF3800
FD007F0B
003A16F4
00E5E00D
141DC228
4300100A
EE0000E1
0009F8ED
1F1C1200
0E0041F7
20EE0A04
F3D714D8
05FD07F0
FEB21BF2
F92FD3EA
220ED700
FA4A100A
FA27FFDB
00490001
00EC4E00
17F900FE
3F002AEB
053F120B
B930F402
FAECC9E1
38050000
7FEB0701
33CA000E
00F40013
EBE9D607
0022013F
4513F300
F7F93B00
2C00F9E6
D92BFA14
000E0FED
35FA040F
D800B928
DC0000DE
00D810F3
27E24300
F200E60C
F811FFFC
FC05D523
08F60831
020B0104
00000000
00000000
00000000
00000000
00000000
00000000
00000000
00000000
00000000
00000000
00000000
00000000
00000000
00000000
00000000
00000000
00000000
00000000
00000000
00000000
00000000
00000000
00000000
00000000
00000000
00000000
00000000
00000000
00000000
00000000
00000000
00000000
00000000
00000000
00000000
00000000
00000000
00000000
00000000
00000000
00000000
00000000
00000000
00000000
00000000
00000000
00000000
00000000
00000000
00000000
00000000
00000000
00000000
00000000
00000000
00000000
00000000
00000000
00000000
00000000
00000000
00000000
00000000
00000000
FEE2E52D
FFD43421
02D3FFFD
297F550F
00EF000A
00030C00
EB090017
E100016A
1209F344
D1CBC3FC
E81528D1
DDDD0000
BD25FCBB
E2C700FD
001B00F9
1518EC0F
00E3012D
06F2BE00
33393200
3D00E2E0
3B3818D5
00DFAC43
27C8DEF0
1700FF2D
0D0000CD
003A10FD
291B2500
2A002949
3FEB115A
0415F101
EBE21116
FEBA7D14
00000000
00000000
00000000
00000000
00000000
00000000
00000000
00000000
00000000
00000000
00000000
00000000
00000000
00000000
00000000
00000000
00000000
00000000
00000000
00000000
00000000
00000000
00000000
00000000
00000000
00000000
00000000
00000000
00000000
00000000
00000000
00000000
D30E1C27
101EAF2B
CE39D5EF
48E63706
00A700CC
00E41B00
08070094
D7000E15
379D08F5
E5A8F700
DEF802C8
1FFD0000
2BC8FDFA
E9260012
0039003E
E8EE09D8
00D1FFF5
1DBC0400
09F40900
27002A0C
061D07CC
00E5D9F5
F6D9F0DA
D3007FC1
F30000C5
0077DBFD
D7FAA500
F400B0DF
FCC2A7FC
1CD1D100
F42301A9
FECC05F1
00000000
00000000
00000000
00000000
00000000
00000000
00000000
00000000
00000000
00000000
00000000
00000000
00000000
00000000
00000000
00000000
00000000
00000000
00000000
00000000
00000000
00000000
00000000
00000000
00000000
00000000
00000000
00000000
00000000
00000000
00000000
00000000
00000000
00000000
00000000
00000000
00000000
00000000
00000000
00000000
00000000
00000000
00000000
00000000
00000000
00000000
00000000
00000000
00000000
00000000
00000000
00000000
00000000
00000000
00000000
00000000
00000000
00000000
00000000
00000000
00000000
00000000
00000000
00000000
00000000
00000000
00000000
00000000
00000000
00000000
00000000
00000000
00000000
00000000
00000000
00000000
00000000
00000000
00000000
00000000
00000000
00000000
00000000
00000000
00000000
00000000
00000000
00000000
00000000
00000000
00000000
00000000
00000000
00000000
00000000
00000000
AEFE195B
24362746
D0FCFFEC
D12A1FB4
002E0028
00D9D600
F80F0087
9F0022EF
DAC4DB11
FA15F5FE
E5D219A9
07590000
86DED4FA
F12700F0
000400BF
D4E9D6F9
00DF00F0
F8095300
1BD9BB00
9A0012B7
F103BE58
003E09D5
E92A0F14
7F00E9F4
14000005
00C542FA
0603B100
EF00FC11
E2FCFB3E
373A2CEB
DADCFFDB
00ABC401
00000000
00000000
00000000
00000000
00000000
00000000
00000000
00000000
00000000
00000000
00000000
00000000
00000000
00000000
00000000
00000000
00000000
00000000
00000000
00000000
00000000
00000000
00000000
00000000
00000000
00000000
00000000
00000000
00000000
00000000
00000000
00000000
00000000
00000000
00000000
00000000
00000000
00000000
00000000
00000000
00000000
00000000
00000000
00000000
00000000
00000000
00000000
00000000
00000000
00000000
00000000
00000000
00000000
00000000
00000000
00000000
00000000
00000000
00000000
00000000
00000000
00000000
00000000
00000000
00000000
00000000
00000000
00000000
00000000
00000000
00000000
00000000
00000000
00000000
00000000
00000000
00000000
00000000
00000000
00000000
00000000
00000000
00000000
00000000
00000000
00000000
00000000
00000000
00000000
00000000
00000000
00000000
00000000
00000000
00000000
00000000
00000000
00000000
00000000
00000000
00000000
00000000
00000000
00000000
00000000
00000000
00000000
00000000
00000000
00000000
00000000
00000000
00000000
00000000
00000000
00000000
00000000
00000000
00000000
00000000
00000000
00000000
00000000
00000000
00000000
00000000
00000000
00000000
3920F4CB
10FCF4D8
29E6F1F7
163214E5
00FE00F8
00E01000
03F90006
CD0003C3
2BEFDEFF
2C132EFF
032108CF
CBE90000
0EC6200F
1DFF0024
00EB0018
D508DCC4
0024FF13
05130900
D8140500
2400F9D8
DD21E1FA
0061FE18
020802D5
FA000811
F7000006
0081FFDD
F5F5FC00
1500AEF8
BFE4C8F7
EBF13407
0CEBFD14
FDEAFEE0
FCF5FCF8
CDE50C21
FF042F42
10DC40ED
00DB00F6
00130A00
1E000015
2900BBED
403FF706
173EDF01
7FF11D00
01020000
21FE1421
FFF1000F
001C005F
2EBB293B
00F300FD
DCFD1900
08513E00
28004BDC
0C0D0815
0004E839
04CEDB1E
2500BF0A
AC00005D
00E4E843
31F94E00
F00004FC
F8F31E0A
0AF2DC48
433FFFDB
00484628
D8EED67F
73F11DFA
0655F2F8
3DB3322F
00F20060
00E5DD00
C51B008F
090063E6
351240FD
9EF10400
EABEFEE2
D5EE0000
AC582DD6
1E0A00D3
001D0005
D21CC544
00F10173
109F6800
23274D00
A000CDFA
37DA3E97
002BD80C
4EC0BB21
EB00EF90
1F0000F0
00481C5D
22694F00
33002C46
17A5AB38
2A90BF27
D5FE031D
042C2A03
37EAFE17
09D9E7C1
EC0A31F9
101335D5
00F4000A
00DC8100
060B0023
2F00E526
DE14C7C9
62150302
1CFC19F8
15100000
1017E424
1E1A0017
00B3001C
D2FDD1D4
00DDFFFE
CE0AF800
C8DA0200
15002923
D7CB33F8
0000ADE1
E7D3E31C
F100CEC5
DF00003E
00CB0A0F
3B08DB00
55001F5C
3123F9FC
D0CD01F1
2E18FF4D
FCD6F404
DC030687
1636E6FF
1B0BD94A
6CE24DD6
00130002
00606000
C2B2001D
CF0023F5
0E0CEF1E
F3D1040B
C9CB43EF
C3120000
C91DED0A
F10B0003
002B00DE
CE1924E6
00DF0043
F5D9DD00
05055A00
4500E1F3
E41E0A47
0076D27F
2CC50801
2C001962
1300000C
00BC00D4
FF1F6000
2300D525
BDB4F2DE
BB4CF00C
C546F2F3
FEF855E3
2C203616
2EEEF4B5
0EC861C1
133116D2
00F300BE
00A7D900
EE270042
47007CFB
1C4CEA54
EBD92D01
D74A0A11
F12E0000
D6EBE5AF
2A0100FD
006C0044
C26AE936
00FE02A5
10DEEC00
D3215400
DE001B1D
50D2F3DA
00437FDE
B43BC2C6
0700F026
CC000010
0001100F
BCC0F500
0400E516
E94FD946
54E8072A
17E504E3
02D763AF
00000000
00000000
00000000
00000000
00000000
00000000
00000000
00000000
00000000
00000000
00000000
00000000
00000000
00000000
00000000
00000000
00000000
00000000
00000000
00000000
00000000
00000000
00000000
00000000
00000000
00000000
00000000
00000000
00000000
00000000
00000000
00000000
F77F09E8
F51347FB
42DB253E
1537070C
00F900E7
00624200
36170025
1600E324
12F464DA
FCC5EBFC
221133C8
ED180000
082EF142
FDFB0017
00D700E7
1E04FF47
00F2FF5E
78E72800
E7F30800
230023FF
D1FC06CC
00D8DF3A
413CF855
06002DD2
0C0000DD
0046F136
D4D9FC00
0600F7FE
1D3AFF11
2F151FD4
38F9F812
0543F75F
FF06DF7B
7F171259
E001C032
DCE7F247
0018000A
005A5100
3D30002A
920025F1
E4DA4C02
DABF1303
F6130AD3
A2BA0000
1FC524DC
40E900F7
00F900B7
E8E219C1
00120026
3FAB3500
1145E600
1300E39D
6AFAFFFB
00BE0E1E
2BCA2927
34009E78
4A0000F2
0004F0D7
1E09EE00
0B0006B3
E7EE34D9
344AB8E5
D70201DC
FFEBF31C
DCF8E9E7
E066FF7F
23254CEB
22FA04D7
00E800B5
0025C500
23FA00A8
D600D4EF
E73820B3
00080708
0B09E387
1BFC0000
26B029EA
A1EF00E9
00EA0000
21042BD3
000AFDF3
0BEBF700
F113F600
D2002D3C
03330AD3
002547FE
D40E1BDA
FF0013DA
E40000F8
0020C6B1
BFE5EA00
EE00D00B
CFEA18FA
102B2230
D300F91B
F3FD181A
00000000
00000000
00000000
00000000
00000000
00000000
00000000
00000000
00000000
00000000
00000000
00000000
00000000
00000000
00000000
00000000
00000000
00000000
00000000
00000000
00000000
00000000
00000000
00000000
00000000
00000000
00000000
00000000
00000000
00000000
00000000
00000000
1AFEAC28
C6F629BE
F0E3EC37
F53B0DA6
00DE00FB
000C6800
1DFD00AC
2600C1A2
1CD3F3ED
19004400
D7ECF636
DFE90000
811E031B
B34B00B2
00100032
2F16F6C3
0011002B
D90B9700
D6E70800
9E000826
E1441BDE
00ADFD32
4FD010EA
F500F247
340000D3
00F8313B
593EAB00
10001E9A
F0C03DE2
DD3EE6AB
173201E7
FCFCF4B6
00000000
00000000
00000000
00000000
00000000
00000000
00000000
00000000
00000000
00000000
00000000
00000000
00000000
00000000
00000000
00000000
00000000
00000000
00000000
00000000
00000000
00000000
00000000
00000000
00000000
00000000
00000000
00000000
00000000
00000000
00000000
00000000
D41FF7E7
CB1FD1D9
09DB042C
55DF0AEE
002D001D
001F0800
F0E100F6
B500E7D6
2C01EFB4
DDCDD304
3DE054D4
29E20000
F70602DD
18270056
00CB00F3
D0CEE9FE
00ED0004
69F8F700
E1064600
6B00B4D0
CFF6249D
008127B3
42FBDDEF
C20040DD
220000DF
0012F133
FF0CD400
1C00140D
3DFB40E2
DE2C13FF
33E6FE22
0014EF70
00000000
00000000
00000000
00000000
00000000
00000000
00000000
00000000
00000000
00000000
00000000
00000000
00000000
00000000
00000000
00000000
00000000
00000000
00000000
00000000
00000000
00000000
00000000
00000000
00000000
00000000
00000000
00000000
00000000
00000000
00000000
00000000
0AE5B40C
0A2027F5
EB070B3B
2C16DFCB
00350042
003B1200
3EEF00A7
E400C806
EE0D2CB8
E6AD1004
DCD4E1E3
D3E00000
3C13C6D2
E2C100F0
000B00B1
D5DC0AD9
00EAFF7F
B6FE4A00
08F70100
0E00B536
BCF6350A
004BD303
E3FC0D33
1A00C9FD
F4000005
0014F6DB
2A1F1900
FB00FE18
E224EE01
2632F1F4
F004F9F4
041AFE00
F1CBFF15
FA1333E7
210EE3FF
0D13F91C
00E600EA
00FD1800
2D0D00FF
0F0008FE
23D4EF3B
3709FDFB
14280D1A
19E80000
D801F10B
C0EA00E9
00E0000B
1DFB070B
0012FFE0
FEDA0D00
DB06E100
0500E717
FC01F913
007F01DE
36E61702
F4002FE0
0300000A
001F1DE9
FC1CD800
EA001F25
0016EEEF
F81014F9
1E27FF1A
FF09F7EF
00000000
00000000
00000000
00000000
00000000
00000000
00000000
00000000
00000000
00000000
00000000
00000000
00000000
00000000
00000000
00000000
00000000
00000000
00000000
00000000
00000000
00000000
00000000
00000000
00000000
00000000
00000000
00000000
00000000
00000000
00000000
00000000
EE42FD0F
CBD2F312
D630A2C1
2B7FFB23
00320026
00CC1200
1B050048
E400F7B7
92F11ADB
30EA060A
44CD0BDE
4C630000
500ED3E3
40EE0043
00140009
1FE3C759
00D000E4
78EBE100
F6390D00
E2002114
DCCB2123
00376702
2F0021AC
0000003B
E80000D2
003BEF01
AFBD3C00
2D00E20F
0E1ACFFA
5C8BEAEC
12E7F67E
FF3BFECF
00000000
00000000
00000000
00000000
00000000
00000000
00000000
00000000
00000000
00000000
00000000
00000000
00000000
00000000
00000000
00000000
00000000
00000000
00000000
00000000
00000000
00000000
00000000
00000000
00000000
00000000
00000000
00000000
00000000
00000000
00000000
00000000
483305D4
D021FB30
2B8EE40D
01012568
00EF00D6
00869800
30F800D4
2E00A71E
C036D905
3C2D0EFA
E2DD020D
AD050000
84F4D602
CAE200F8
00E7002E
F1DE25C1
002E01BA
C7341D00
C4C4E600
06000A3E
CDE9130F
00370075
25223915
C000191E
DF00007F
00B43206
0FE13500
DF000CDE
1425FE4D
B0E0EF16
1ED502E2
021A13EC
00000000
00000000
00000000
00000000
00000000
00000000
00000000
00000000
00000000
00000000
00000000
00000000
00000000
00000000
00000000
00000000
00000000
00000000
00000000
00000000
00000000
00000000
00000000
00000000
00000000
00000000
00000000
00000000
00000000
00000000
00000000
00000000
00000000
00000000
00000000
00000000
00000000
00000000
00000000
00000000
00000000
00000000
00000000
00000000
00000000
00000000
00000000
00000000
00000000
00000000
00000000
00000000
00000000
00000000
00000000
00000000
00000000
00000000
00000000
00000000
00000000
00000000
00000000
00000000
81F203FA
CD1DED3F
27C8F00C
E4F22A1C
002500FC
00042C00
23FE002B
04001F41
171FF9FB
ED0BE6F5
04161939
E8E30000
480B0212
E0E500CA
003000F9
F633C608
00E200F9
0DD71200
12381900
F500340A
D6E6E707
009BFEE7
09ADACEA
3000D217
C20000CB
000EBB08
17DC6300
F2000C48
F4C52A0C
F4FBF710
B5A8F7EC
FD171FF1
E805D635
FE1B7CC1
143BDDEE
D41CD3C0
005500E1
009DF800
F32400E2
DF00FBE3
0A1FD5F3
CFC2FBF2
52B8D1C2
78460000
30B0E900
B14B00E5
003900F6
53FABBED
001A0038
0CF5EC00
C0BB0800
290024AB
11750AC3
0017D3B2
CF59D0EA
DF00007F
EF0000FA
0025FDB6
24EBD500
E100161A
533B021C
538BDED2
BF9EFD42
042FE30C
00000000
00000000
00000000
00000000
00000000
00000000
00000000
00000000
00000000
00000000
00000000
00000000
00000000
00000000
00000000
00000000
00000000
00000000
00000000
00000000
00000000
00000000
00000000
00000000
00000000
00000000
00000000
00000000
00000000
00000000
00000000
00000000
00000000
00000000
00000000
00000000
00000000
00000000
00000000
00000000
00000000
00000000
00000000
00000000
00000000
00000000
00000000
00000000
00000000
00000000
00000000
00000000
00000000
00000000
00000000
00000000
00000000
00000000
00000000
00000000
00000000
00000000
00000000
00000000
00000000
00000000
00000000
00000000
00000000
00000000
00000000
00000000
00000000
00000000
00000000
00000000
00000000
00000000
00000000
00000000
00000000
00000000
00000000
00000000
00000000
00000000
00000000
00000000
00000000
00000000
00000000
00000000
00000000
00000000
00000000
00000000
DDD6F1F2
279FFAEC
0EC7175B
C5D8EFB7
00EA00A7
00F66400
B35B0049
EC003DED
11E32218
130017FF
DD7F24C0
FDE00000
36FC1C35
0BCD0020
00DE00D9
D3CF2E18
000EFF14
F023E000
F8450600
FA00A304
3CFB052E
00CEC110
F51FB106
1800FA6E
E50000DB
00EACCF0
43F21100
F20002FB
1A19EE09
23D0F9EC
D35002F8
050114BB
00000000
00000000
00000000
00000000
00000000
00000000
00000000
00000000
00000000
00000000
00000000
00000000
00000000
00000000
00000000
00000000
00000000
00000000
00000000
00000000
00000000
00000000
00000000
00000000
00000000
00000000
00000000
00000000
00000000
00000000
00000000
00000000
C8B512F3
2EF221D9
2E236AE5
D9572E22
002F002D
001CE800
F4FD00F0
FC007F42
61711500
D6FFFC05
FDBF2703
F8DC0000
09E3CAB9
10DF00CF
00160019
3ECF0D44
001001EC
F20B0C00
1448FF00
D8001E23
59652BFD
0036BEDE
D7EBDDC2
FB000FC6
EF000015
000FF9EF
1E602100
10000933
26F0003E
2401FBF7
EBE805F4
02F12050
06E4E666
46EC2413
02D80335
3FBB00FF
00BF00ED
00FC9900
C3090038
0C003B22
74D703C7
A3FAF0FD
0630ECCA
AAEB0000
1CD8F60D
2DC10005
00FA0010
98F455CA
00E401AE
D9DB3E00
233B0500
7600F7B1
3DF61AF5
0010BDF6
E6F8CC0B
F7000A1B
F10000D4
00DDFD23
38EE3500
EE00FC0F
2CE00910
3F0AD814
E67FFF29
02D7EAFE
00000000
00000000
00000000
00000000
00000000
00000000
00000000
00000000
00000000
00000000
00000000
00000000
00000000
00000000
00000000
00000000
00000000
00000000
00000000
00000000
00000000
00000000
00000000
00000000
00000000
00000000
00000000
00000000
00000000
00000000
00000000
00000000
00000000
00000000
00000000
00000000
00000000
00000000
00000000
00000000
00000000
00000000
00000000
00000000
00000000
00000000
00000000
00000000
00000000
00000000
00000000
00000000
00000000
00000000
00000000
00000000
00000000
00000000
00000000
00000000
00000000
00000000
00000000
00000000
278AEB11
EEA9175C
FB05CDC4
D7F70557
00A800D6
004C5800
2A100060
E000D605
BE0E07E3
C7E4F30B
37111435
D21C0000
E7F9F820
4BB600E0
00390019
B77FE9FA
001600FE
08BF1E00
EBEEF200
DC00361D
5CBFFFF4
00BD1BF4
35A4DA1B
2E00F34C
D3000089
00C307FB
272C2700
EB00D101
02C74612
1DE3C144
E61601EB
FE0E3DD3
00000000
00000000
00000000
00000000
00000000
00000000
00000000
00000000
00000000
00000000
00000000
00000000
00000000
00000000
00000000
00000000
00000000
00000000
00000000
00000000
00000000
00000000
00000000
00000000
00000000
00000000
00000000
00000000
00000000
00000000
00000000
00000000
2CE2FE0C
2CA923F1
3DFB1C4E
FE28FEF7
006500C8
001B5100
04FE00FB
0500F0D7
EC7010D2
49FB6704
F9E1D418
39040000
5837E196
1E9D0005
0011001E
F9BF9AFA
00DEFF03
BC53F900
09F8F200
0C009400
150CEB18
00F50926
0F7FE7A3
23000E74
3400006A
00E54CCF
A9DFF900
0E0058C2
1B51DC25
D658F25D
13C80ECD
0AC82CEF
D9FCEB13
CD18FD25
E8F1ED11
FBECEF48
00E6007F
00F2EE00
692000E1
DA003200
001A03EF
FD26FB00
EBDD2E0C
A9EE0000
E202F153
0CF000D8
000300E2
09E90CD7
001000F8
0DC80D00
D11F1100
E100FB01
E81D27CA
0001E80E
D8CFEF08
FC00A7E1
FE00001D
00DAFAD9
0FED0700
180007FC
571871F0
EBECDFE9
FF21FD01
00E92FE8
204C33ED
2631F916
FF1517E7
BB0CF33E
001D0008
004AC100
E4D400CF
2200252B
F4DB3112
4DFEEBFE
2539DF1B
34F60000
091229F0
CA1C0014
00360010
41054227
003BFEE8
CDFE2400
34287F00
EC00AECB
03F51213
00E211FB
2D1428C5
E40030FE
F6000030
00DADDF8
F7F43400
4100FA22
0B14D705
254D0E32
2FF9022B
FE1909F7
00000000
00000000
00000000
00000000
00000000
00000000
00000000
00000000
00000000
00000000
00000000
00000000
00000000
00000000
00000000
00000000
00000000
00000000
00000000
00000000
00000000
00000000
00000000
00000000
00000000
00000000
00000000
00000000
00000000
00000000
00000000
00000000
9BF10914
E70C32D9
F6FA08BA
1310FA08
00C400FB
0004FB00
152700E4
D6003441
F41AF533
DA12CC00
41ED3EFB
23530000
D5F4F2C7
30A500F7
00DB00DE
23D9B205
00FD00C9
3BFF9600
30273F00
F10023E5
413115F9
003EBE29
D4C72800
210003F6
C50000CC
0006DDE6
09202300
2200FD15
7F3DD52F
1A1FF1F2
12E2FC12
F5250855
00000000
00000000
00000000
00000000
00000000
00000000
00000000
00000000
00000000
00000000
00000000
00000000
00000000
00000000
00000000
00000000
00000000
00000000
00000000
00000000
00000000
00000000
00000000
00000000
00000000
00000000
00000000
00000000
00000000
00000000
00000000
00000000
00000000
00000000
00000000
00000000
00000000
00000000
00000000
00000000
00000000
00000000
00000000
00000000
00000000
00000000
00000000
00000000
00000000
00000000
00000000
00000000
00000000
00000000
00000000
00000000
00000000
00000000
00000000
00000000
00000000
00000000
00000000
00000000
00000000
00000000
00000000
00000000
00000000
00000000
00000000
00000000
00000000
00000000
00000000
00000000
00000000
00000000
00000000
00000000
00000000
00000000
00000000
00000000
00000000
00000000
00000000
00000000
00000000
00000000
00000000
00000000
00000000
00000000
00000000
00000000
00000000
00000000
00000000
00000000
00000000
00000000
00000000
00000000
00000000
00000000
00000000
00000000
00000000
00000000
00000000
00000000
00000000
00000000
00000000
00000000
00000000
00000000
00000000
00000000
00000000
00000000
00000000
00000000
00000000
00000000
00000000
00000000
00000000
00000000
00000000
00000000
00000000
00000000
00000000
00000000
00000000
00000000
00000000
00000000
00000000
00000000
00000000
00000000
00000000
00000000
00000000
00000000
00000000
00000000
00000000
00000000
00000000
00000000
00000000
00000000
00000000
00000000
00000000
00000000
00000000
00000000
00000000
00000000
00000000
00000000
00000000
00000000
00000000
00000000
00000000
00000000
00000000
00000000
00000000
00000000
00000000
00000000
00000000
00000000
00000000
00000000
00000000
00000000
00000000
00000000
00000000
00000000
00000000
00000000
00000000
00000000
00000000
00000000
00000000
00000000
00000000
00000000
00000000
00000000
00000000
00000000
00000000
00000000
00000000
00000000
00000000
00000000
00000000
00000000
00000000
00000000
00000000
00000000
00000000
00000000
00000000
00000000
00000000
00000000
00000000
00000000
00000000
00000000
81EE3AB2
9B2F9AD9
D624DDC4
0C04112E
00B60049
0006FF00
22AE00C5
DE006532
CE2B3FD0
3FF38603
10A441E8
E36B0000
EEDE2F16
46A10014
00EF00F4
EBC6AFD3
00EB0026
5702BA00
124B1600
060054F2
330BEB2D
00351E09
9B03C0E8
240021B9
250000CE
00FAF600
05F20500
FE00D417
3C096527
23CD2708
2EF2F744
FEEC1A75
00000000
00000000
00000000
00000000
00000000
00000000
00000000
00000000
00000000
00000000
00000000
00000000
00000000
00000000
00000000
00000000
00000000
00000000
00000000
00000000
00000000
00000000
00000000
00000000
00000000
00000000
00000000
00000000
00000000
00000000
00000000
00000000
CF182E3F
64FC1D38
07E1CB58
C8DCF2B3
004500D7
009BDB00
5B4E00DC
DB00A0A5
CB14F110
DB847100
DF15EB37
F96E0000
810B3EF5
F79F00D7
00BF00FC
1106FDA7
00120051
080A0000
190C1100
D9009321
1D7442BD
00B10951
02F40A3A
B900CB15
B500000D
001BB6D5
E2FAAA00
5E0010BA
2C371CD4
73A790FB
A728F11F
05EE3EE5
00000000
00000000
00000000
00000000
00000000
00000000
00000000
00000000
00000000
00000000
00000000
00000000
00000000
00000000
00000000
00000000
00000000
00000000
00000000
00000000
00000000
00000000
00000000
00000000
00000000
00000000
00000000
00000000
00000000
00000000
00000000
00000000
0008E2C6
EBFDF2EF
FADE2EFA
DBBF16DE
00E300CB
000B0800
ECDF00E2
0700E72E
55EF28F6
5DC0440C
3B41D8F4
FF030000
42EDF419
EC1D0013
002700EC
17E8C316
00ED003F
E921BF00
D1D4DB00
10001DEB
C9FE2730
00201DF0
3C18C6CE
38001906
1C0000E1
00230881
3B07F200
2200E5EE
AFBF1FE9
2E1DF8FC
F654FFF4
0126F816
00000000
00000000
00000000
00000000
00000000
00000000
00000000
00000000
00000000
00000000
00000000
00000000
00000000
00000000
00000000
00000000
00000000
00000000
00000000
00000000
00000000
00000000
00000000
00000000
00000000
00000000
00000000
00000000
00000000
00000000
00000000
00000000
00000000
00000000
00000000
00000000
00000000
00000000
00000000
00000000
00000000
00000000
00000000
00000000
00000000
00000000
00000000
00000000
00000000
00000000
00000000
00000000
00000000
00000000
00000000
00000000
00000000
00000000
00000000
00000000
00000000
00000000
00000000
00000000
00000000
00000000
00000000
00000000
00000000
00000000
00000000
00000000
00000000
00000000
00000000
00000000
00000000
00000000
00000000
00000000
00000000
00000000
00000000
00000000
00000000
00000000
00000000
00000000
00000000
00000000
00000000
00000000
00000000
00000000
00000000
00000000
00000000
00000000
00000000
00000000
00000000
00000000
00000000
00000000
00000000
00000000
00000000
00000000
00000000
00000000
00000000
00000000
00000000
00000000
00000000
00000000
00000000
00000000
00000000
00000000
00000000
00000000
00000000
00000000
00000000
00000000
00000000
00000000
00000000
00000000
00000000
00000000
00000000
00000000
00000000
00000000
00000000
00000000
00000000
00000000
00000000
00000000
00000000
00000000
00000000
00000000
00000000
00000000
00000000
00000000
00000000
00000000
00000000
00000000
00000000
00000000
00000000
00000000
00000000
00000000
00000000
00000000
00000000
00000000
00000000
00000000
00000000
00000000
00000000
00000000
00000000
00000000
00000000
00000000
00000000
00000000
00000000
00000000
00000000
00000000
00000000
00000000
00000000
00000000
00000000
00000000
00000000
00000000
00000000
00000000
00000000
00000000
00000000
00000000
00000000
00000000
00000000
00000000
00000000
00000000
00000000
00000000
00000000
00000000
00000000
00000000
00000000
00000000
00000000
00000000
00000000
00000000
00000000
00000000
00000000
00000000
00000000
00000000
00000000
00000000
00000000
00000000
00000000
00000000
00000000
00000000
00000000
00000000
00000000
00000000
00000000
00000000
00000000
00000000
00000000
00000000
00000000
00000000
00000000
00000000
00000000
00000000
00000000
00000000
00000000
00000000
00000000
00000000
00000000
00000000
00000000
00000000
00000000
00000000
00000000
00000000
00000000
00000000
00000000
00000000
00000000
00000000
00000000
00000000
00000000
00000000
00000000
00000000
00000000
00000000
00000000
00000000
00000000
00000000
00000000
00000000
00000000
00000000
00000000
00000000
00000000
00000000
00000000
00000000
00000000
00000000
00000000
00000000
00157FD5
2315CAF1
D416D9E9
3DFF1FEB
002000DA
00511F00
BF1500B1
1900ED08
04C9010C
E5F5E506
EE17F420
57F90000
7AE4F5DC
F00E0016
0026005C
421D521C
00550194
F8F64F00
EA091700
F7001C70
F217094A
00122A94
FBF516EB
97000CC4
F30000BC
0003DC08
FE252B00
FA00DFEC
E1E9C0CA
0502DB20
D111FDEE
02EAD002
C811DD2C
27FA04F8
03BC081F
5C40269C
00140075
00F12200
0D69007A
E00059FA
1FEA48E0
D9532DEA
F1D22CF0
B8C30000
3D17D1AB
400000AF
00EB007B
F110C501
0062020C
F2B9E200
DAFE4600
1F0009F0
7F04E90A
0001D49C
5418E1CE
0700F12C
270000CE
0001ECF3
2D151E00
5600E418
DB003E41
1DB75BFE
0A0404D7
002C11C4
173BEC03
CA2C43D1
1E48E7D0
DC0948E4
001C0017
00136300
2E2F00E5
0600D105
FB2127CE
E5FD5B08
380D0FEF
1ACF0000
4C023204
11FF00EC
002D0044
7F99ED1C
00010084
16341E00
05C80600
D500430C
C8553C06
00140EF7
448CCEF1
CC00E1D4
1B0000ED
00CED64B
38E85600
FB002BF6
0203FEFF
C15CFC0E
1C250056
FE1BF402
00000000
00000000
00000000
00000000
00000000
00000000
00000000
00000000
00000000
00000000
00000000
00000000
00000000
00000000
00000000
00000000
00000000
00000000
00000000
00000000
00000000
00000000
00000000
00000000
00000000
00000000
00000000
00000000
00000000
00000000
00000000
00000000
F218FD39
341430DB
9AD57E36
1F0D13C6
00E10017
00F3DF00
361B001D
170018F5
2781CF42
A02C0CFB
27CCEEFF
9DF50000
C1F4DE1D
FC350005
00BE00D7
24EEC8BF
00F000F4
10CC1500
FD13ED00
EE00D6D7
1420CD2F
00FCE0F1
E4D3C517
42000306
010000DB
00BA0B26
2521FE00
FC0014FB
2B6AF0ED
C9FDFCCE
0F3102E2
01D4D8FF
0311EF25
EBE02711
AB28F3FD
0FDC1907
00F800EE
00002D00
C00F002C
1D007F24
1FF61DE6
F731070A
BFFD32E0
EDDA0000
EFFEE6EC
D7D100D2
003500FA
31F6EE01
00F000FE
EE3CF900
331CD300
9800E816
1FFC0DE0
00370F3A
05D12228
08002CC1
B90000F4
00F507ED
FAEBF700
17001F2F
E0DC0425
A008D707
1AFFFE22
FF13DCF6
00000000
00000000
00000000
00000000
00000000
00000000
00000000
00000000
00000000
00000000
00000000
00000000
00000000
00000000
00000000
00000000
00000000
00000000
00000000
00000000
00000000
00000000
00000000
00000000
00000000
00000000
00000000
00000000
00000000
00000000
00000000
00000000
00000000
00000000
00000000
00000000
00000000
00000000
00000000
00000000
00000000
00000000
00000000
00000000
00000000
00000000
00000000
00000000
00000000
00000000
00000000
00000000
00000000
00000000
00000000
00000000
00000000
00000000
00000000
00000000
00000000
00000000
00000000
00000000
DC22BB6F
460F83E0
F1CB10FC
FCCA0551
00FD0011
00D4F300
D80E0012
0B007F1C
4F3FD2FA
06EEDB00
B9D7E8D7
36A70000
0DD0F3F3
06C4000B
00560047
DAAAD1CB
00A900B8
CE297900
3E50D700
5100F3BC
4DC603FF
00D4DC69
84C0E0DC
15000328
FF000003
00E003C5
CCE62200
1400C2F2
F3E6B056
B9D1EC21
BB6503C6
031139ED
EE254DDB
E15A3381
E42D42DB
E5740344
004100C6
00E0A600
120D00D3
3200D118
8B1BE60B
FA512BFC
02D90E47
1AF60000
DB0A16E3
F0D50024
00B200CE
09F9E6AF
0003011E
EAE71100
30F11400
DD00D445
1D290923
00DB1BE7
C9003228
D6001D2E
56000085
001AE021
F9487300
A900F3E5
DA27010D
0D17070F
48E60B1D
FCCE0725
00000000
00000000
00000000
00000000
00000000
00000000
00000000
00000000
00000000
00000000
00000000
00000000
00000000
00000000
00000000
00000000
00000000
00000000
00000000
00000000
00000000
00000000
00000000
00000000
00000000
00000000
00000000
00000000
00000000
00000000
00000000
00000000
220C2D26
F7F2F2F4
311EBE00
1212251F
00E000F7
00228700
F7C70005
C0000F49
50C3C52C
E95400F4
C62DBA49
FB1F0000
F9FB1BBA
B9310031
00F3007F
010B30EA
001D00A3
C3071A00
1309E400
AA00F709
D6EBD2FE
00FC1A1E
F0B304CD
DA0022FB
E20000B1
00DDC7EC
F3E4D400
F600CE24
E3F55E38
F1030008
21D6FDDE
FF01EED7
00000000
00000000
00000000
00000000
00000000
00000000
00000000
00000000
00000000
00000000
00000000
00000000
00000000
00000000
00000000
00000000
00000000
00000000
00000000
00000000
00000000
00000000
00000000
00000000
00000000
00000000
00000000
00000000
00000000
00000000
00000000
00000000
B5EC2B1B
CB11136B
E00522E3
DCC2F07E
00B00014
00C3CB00
1C4A004F
E1001A2E
189DC126
DD6DCDF9
BCB0DC06
06DF0000
D8E1CB3E
2A370047
00A300BE
DDDFDCB4
00190039
C2D67F00
D04C0300
4E00CEBC
FFB1E8EF
009FF051
B6210F61
1A00622F
0D00009D
00D5D9CE
14DC6500
D7000AEF
E32E5F2B
E516F715
310D02E2
FDADED2F
00000000
00000000
00000000
00000000
00000000
00000000
00000000
00000000
00000000
00000000
00000000
00000000
00000000
00000000
00000000
00000000
00000000
00000000
00000000
00000000
00000000
00000000
00000000
00000000
00000000
00000000
00000000
00000000
00000000
00000000
00000000
00000000
FB230DF4
7F00DD32
0BD3F638
D6002198
000F00E8
00143C00
FD1C000C
0E002EE8
71CD100B
27EC0C00
FB05F5F6
B7190000
3D110D20
E5080010
000E0020
E8ABF401
00FA0027
D0024000
3B0DED00
6200B0C3
1FEEF4F0
00F9DE2D
1B0ECA16
EE00F957
F1000007
00B1FAEC
9CE9FE00
F600E6FF
F61DEDF2
F42ED0F4
B129FEF3
00D9EE26
00000000
00000000
00000000
00000000
00000000
00000000
00000000
00000000
00000000
00000000
00000000
00000000
00000000
00000000
00000000
00000000
00000000
00000000
00000000
00000000
00000000
00000000
00000000
00000000
00000000
00000000
00000000
00000000
00000000
00000000
00000000
00000000
00000000
00000000
00000000
00000000
00000000
00000000
00000000
00000000
00000000
00000000
00000000
00000000
00000000
00000000
00000000
00000000
00000000
00000000
00000000
00000000
00000000
00000000
00000000
00000000
00000000
00000000
00000000
00000000
00000000
00000000
00000000
00000000
00000000
00000000
00000000
00000000
00000000
00000000
00000000
00000000
00000000
00000000
00000000
00000000
00000000
00000000
00000000
00000000
00000000
00000000
00000000
00000000
00000000
00000000
00000000
00000000
00000000
00000000
00000000
00000000
00000000
00000000
00000000
00000000
00000000
00000000
00000000
00000000
00000000
00000000
00000000
00000000
00000000
00000000
00000000
00000000
00000000
00000000
00000000
00000000
00000000
00000000
00000000
00000000
00000000
00000000
00000000
00000000
00000000
00000000
00000000
00000000
00000000
00000000
00000000
00000000
00000000
00000000
00000000
00000000
00000000
00000000
00000000
00000000
00000000
00000000
00000000
00000000
00000000
00000000
00000000
00000000
00000000
00000000
00000000
00000000
00000000
00000000
00000000
00000000
00000000
00000000
00000000
00000000
00000000
00000000
00000000
00000000
00000000
00000000
00000000
00000000
00000000
00000000
00000000
00000000
00000000
00000000
00000000
00000000
00000000
00000000
00000000
00000000
00000000
00000000
00000000
00000000
00000000
00000000
00000000
00000000
00000000
00000000
00000000
00000000
00000000
00000000
00000000
00000000
00000000
00000000
00000000
00000000
00000000
00000000
00000000
00000000
00000000
00000000
00000000
00000000
00000000
00000000
00000000
00000000
00000000
00000000
00000000
00000000
00000000
00000000
00000000
00000000
00000000
00000000
00000000
00000000
00000000
00000000
00000000
00000000
00000000
00000000
00000000
00000000
00000000
00000000
00000000
00000000
00000000
00000000
00000000
00000000
00000000
00000000
00000000
00000000
00000000
00000000
00000000
00000000
00000000
00000000
00000000
00000000
00000000
00000000
00000000
00000000
00000000
00000000
00000000
00000000
02F6DED8
E62D1CE2
FCCBF1D2
DF11E4F0
00F20028
00F7CF00
13160007
1E00D8E1
FF2BFA28
7F3EF600
F5FEF314
05D70000
E7150736
11B100EE
00220004
07D1F2F1
00F600FA
F364DD00
C0E7F100
DC00FCF6
06F9FDF8
00B20F05
112A0EF9
1400F2B3
EE00000C
000EE9EB
8204FC00
F100DD02
E7F5F512
F8CA33FC
070501FD
FEE6FE0A
00000000
00000000
00000000
00000000
00000000
00000000
00000000
00000000
00000000
00000000
00000000
00000000
00000000
00000000
00000000
00000000
00000000
00000000
00000000
00000000
00000000
00000000
00000000
00000000
00000000
00000000
00000000
00000000
00000000
00000000
00000000
00000000
00000000
00000000
00000000
00000000
00000000
00000000
00000000
00000000
00000000
00000000
00000000
00000000
00000000
00000000
00000000
00000000
00000000
00000000
00000000
00000000
00000000
00000000
00000000
00000000
00000000
00000000
00000000
00000000
00000000
00000000
00000000
00000000
00000000
00000000
00000000
00000000
00000000
00000000
00000000
00000000
00000000
00000000
00000000
00000000
00000000
00000000
00000000
00000000
00000000
00000000
00000000
00000000
00000000
00000000
00000000
00000000
00000000
00000000
00000000
00000000
00000000
00000000
00000000
00000000
00000000
00000000
00000000
00000000
00000000
00000000
00000000
00000000
00000000
00000000
00000000
00000000
00000000
00000000
00000000
00000000
00000000
00000000
00000000
00000000
00000000
00000000
00000000
00000000
00000000
00000000
00000000
00000000
00000000
00000000
00000000
00000000
DCD5D7D8
4CC120EF
7F07B2F2
3C24FFE5
00EA00F4
003D1800
E605004E
460038E7
D5F1E835
1BEBE7FE
6453F91B
333D0000
E0070ECC
EF0400F4
00F30027
FFF2290C
0012022A
16AD9C00
E60EFF00
E200F9EA
1CCBCE26
001312BD
5F8A8401
1D00E44E
E40000A8
00F2EB06
1EFCFF00
F7001823
100F1445
6406DAFE
08070713
FEC61BED
00000000
00000000
00000000
00000000
00000000
00000000
00000000
00000000
00000000
00000000
00000000
00000000
00000000
00000000
00000000
00000000
00000000
00000000
00000000
00000000
00000000
00000000
00000000
00000000
00000000
00000000
00000000
00000000
00000000
00000000
00000000
00000000
E9232FF5
6C0311F7
AEDB4D33
0259F6DD
003800C2
00FC4100
0B4600AF
2700FD40
0A57E8FA
EFBE0109
E1D2202E
29FD0000
49E8FDD5
1E51002E
001D0002
26E8C92B
0017FE3D
783BEB00
F8002400
27004BE2
183D14E2
00C91D35
232BD5E8
B500F466
1C0000BD
009FE018
F5FAE300
DB0009D0
7F65F637
FF1CF900
31B108FE
FC052E4F
FD7FDEEC
DB41F2CA
2B25EC01
D30BF5EF
004900E5
001CE600
E0BB0006
37002466
D8E7E027
F1FC0605
CB080A27
26C50000
2FF718DF
CF11003D
0035002B
34211703
002200CC
21FD1800
E6FB3000
C6000710
E903E8F8
000D73CE
2F033FE4
FF00E35A
42000006
00560BF6
F419BF00
E600E8F9
EEC1F4FB
DB1E1121
220C0439
01E9291E
00000000
00000000
00000000
00000000
00000000
00000000
00000000
00000000
00000000
00000000
00000000
00000000
00000000
00000000
00000000
00000000
00000000
00000000
00000000
00000000
00000000
00000000
00000000
00000000
00000000
00000000
00000000
00000000
00000000
00000000
00000000
00000000
00000000
00000000
00000000
00000000
00000000
00000000
00000000
00000000
00000000
00000000
00000000
00000000
00000000
00000000
00000000
00000000
00000000
00000000
00000000
00000000
00000000
00000000
00000000
00000000
00000000
00000000
00000000
00000000
00000000
00000000
00000000
00000000
E303B213
3D4A68B0
07CFD83A
461D40E7
004800AD
00EF6900
0C3F00C4
D900CACD
0905D0BD
FC883901
2B3E2DF9
0FF00000
E61115DE
CCFD0016
00B80045
2740D4AE
000EFF24
5BF50200
E8EA0F00
17001ACB
22CA1B38
0029C00B
1AC2F5EE
1500C72A
5D0000E9
00B6E236
C5DFA000
1C00F5E6
03313638
D17FDDB8
DFEC0666
FB4625B7
