EADA8181
7FAA81B5
CCE0F0E0
147F81F3
9CDC097F
E8810201
EA9AE587
1414F2AD
D081DBF9
8117100E
81AB0214
A3088B81
273ACAFC
21DAE4F2
FA0F8AE3
812781F6
F2E6D4D7
06031DEC
F0E30303
C9E2F3EF
1E0C6A81
FB1DB1A4
141ADAD9
B6F602C2
081BFF15
AFB1C3E0
3FA509D6
93D12C39
2806E4A7
21DCE8B5
E00681DD
016ADBD7
FAEB8CF0
0E81AC81
04A204E6
0E0AF3C1
8100DB41
F781FA01
7FD30004
0BB08114
016881FB
BEE9D301
A68103D2
FAF981D4
FF377D0C
A6811A08
10F78197
ADD8D30E
F59AD381
6F81F406
81D6FEB5
F9D5A616
7FB02382
D235F2B7
D009ED1D
090FD381
EB7F0CD9
81ABFFC2
D6B4EBD9
8FFE367F
2D110F81
49280FF3
DFE0F716
ED3BE6F7
07C995FB
59D8F1BE
043CF009
FD060681
8C01B2EB
F3AE0DD6
75D70002
1EE6F0E0
BA30FA9F
A8AC1381
CD898EA0
0FDDA002
DE00EFF8
D3E6F3D8
AD819481
DFBCC9F9
DABB0DC1
07BA81E7
9481EA02
D90281D8
0A812603
BA880E01
A9280C67
F9E5818D
813F81F7
9B2313B2
EC15F981
110B36C2
D12FEDA3
A3EF04FF
0DECCD81
ECDB050E
07FD0AF5
090AF702
A081BAD6
823DD2E3
B70A0155
81DD1806
09810E81
1217F1EC
FE9B0B12
ADF9DEB3
0640F212
81F424DD
C6CD915E
A896FC10
EED8F60D
C6060D00
2081948B
7202B8D1
12FB8197
EB810DD1
01097FB6
2453BBCE
AA7F81EC
FBF6FA2F
FB09F6FC
0D81D81A
BD81DFFC
2B813862
2D7F8112
F5969D8A
1D81CEC4
1A7F81DC
038ADB01
0F01EF06
81B281F8
81040510
00FC8123
C519FAEF
78BAEFC9
F991C8C8
8125B1C6
A3BC03FC
F188E9C8
F417C202
C4952917
81CBAAF9
D618C3F6
1807DCF4
25D887DB
7F09ADF1
E2D10CF1
2DF407F8
72E700EA
0900FBB1
DE2DF415
F2FBE5B8
FEF8EF81
E3CF2209
819BB518
B9C97F7E
0258E1B7
17A08100
81CADBF1
1A0AE9FF
F4811903
F2FD1A0D
11EDEE09
A11406DA
1B81DC24
08C6A4F4
130DF20C
28F6178F
8117EE81
A8E5D71D
B7F78181
12F0CC05
38BE9556
1F0F1B81
81DC81D6
F3881002
EEA50BC1
0DDE9715
F788BA08
E852DD97
40B80629
EE970923
0D09E97F
09CA0AEE
BEE413E3
09C03FC8
B6AB81CE
9900FC69
817CFDAD
BAF0DE0C
850D19F2
22C5FEFF
FB1FFEFD
C4F70ADE
A28F1881
DB2FB5E6
A6090324
FBF1FC03
D7D5ED17
1CE0001C
09BE02F3
FC8181BD
11D0240A
C4E3EFEC
81CFF27F
A1D4D404
0BFFF3DD
F7D9FBCD
1CACD10F
5CFFFC81
C7000681
818FF00A
E6F63B16
116281A7
8638DFD6
0B0D01E4
F811EC83
E2C28104
FAE4FBFE
0AC5EFDE
2F4DFCF4
7F22DF81
90FBF5F8
6169E281
F3980600
EAF1D0DA
269FAFCA
EF11FF04
009DF7FF
E315C1E7
F8148102
0281F7B7
D531DCF7
02CDB4F9
06BFCBD1
C6D3FDFD
D09B7F57
F7E681FB
EDEB2BF1
F606F191
7FE58115
3DEF1CFE
08FCF707
E8EEF6EA
FC01F5F5
24C8CE81
810FFDD1
A4DD0A21
0D07E0DF
030BCC09
06ECDFEF
810CEEDC
1958FE21
5681ECFC
FF1605D6
7F1BF0F4
8181A7EF
FF02E3E8
A9D3F1E3
3CF3F701
FBE008DC
FED68181
FF0906E2
7F12DD81
C721EB15
19D00CEB
C613B0E5
D581FEE2
FC811438
07F5B09E
CFFE0121
E681F081
3B3204FD
F909D0F0
04110402
1D420981
2BEB0CA0
7F81F4EA
F32BF111
8181C859
DFFEFA08
0AFD977F
180A1D04
D601E208
A8200A16
06DA13F6
15FFEE14
FE4803E8
