F4F59A0F
0830FE0F
08F772E9
02E30B08
0504F7D2
10FA000D
FAFC2496
81EE09BE
11D8D1DB
F408D613
E528810C
0F1BF2EF
BFF38181
12CCE9AB
F1168111
FC81D9F5
EB0C2CA8
A408A7FF
100914C2
05030CD3
F7C701ED
1FD8C68D
D404CB0E
0DFD9D09
E2074017
C81F240B
141681F4
111C4A7F
AB81171C
1214E5F7
03492981
B0ABF8BF
1578FCDC
E678EEE7
E27F5C2C
7F04DAF9
D3F85D21
E8CA07DA
0081E4E8
F6EDC07F
7F9AE431
A5EFEA7F
09EF40FB
E0BC1BDC
01AB16E3
81411FE5
AEEFBBE1
1F125781
F817DCD2
BC00E4F3
C53DE4FD
ECFD7F13
0681FB28
7F194481
38D581F7
D308CF7F
0E0466EE
21D87F09
DA7FA5FA
47E5285F
8105E77F
E87F8100
81967FE9
40980BAF
F37FB3D9
814D11F5
03FEC913
F5EBF7B3
E18112E7
F4A9B88B
DB1B940E
ADB00EAC
11F800F0
AAF4FE0C
290E3509
FAF0F30F
7FFB73DE
9753F434
E10A86FA
FA0F7FE6
17E4C712
F1F61F81
8101810C
0BFF177F
E208D1E5
0E8E44E2
7FE9BBD5
81EACB0F
F82223F6
F51C1B81
1109B5E9
0AFC1109
A5E9A60B
E8158206
E58120FA
69811281
EC71B1F2
E77F130D
815377F7
191CDDE6
DB024ECC
D3E5FBF8
2CF39E88
862AD508
421CDA7F
1A0EC337
4B08841F
E402083B
11C5DFF4
825DC23D
01D109FC
11B10DA6
0824E381
50CE3EF8
0A7FE245
DFFC4502
06231617
42FF55A5
4DFAD105
0D1B374E
B2817F98
BF054DFA
002DE7B8
39F27FBB
0994084D
C74C18E7
CDCF33D2
3AFBBC0B
EF722396
E543E9BF
0C507F7F
717F9B15
BEE97FC3
BCB3F7F8
45E3EF16
42E68129
5381EE61
7FF7E54B
7F820EE6
E8C0CEEF
25812CF2
FE7F0B63
81EB28EE
FC2C01CD
89CFBBE0
A9E37FF0
D909017D
A4FC52F7
000AE8CB
63087FC5
388DEFF2
1AE3DC61
ADA96FE4
C8DF7610
1D3EEDC8
7FE2718E
1BD4F850
816CF8D6
91B26923
311AE9C1
1A6081F4
F030EC81
ACF5AC25
331F090C
81B4E78B
0E818181
7F349699
B8A6E812
F6AFA034
78B8C6E2
6D812AE7
810F0C9C
2FD754FD
ED3E2065
DA22DE0D
BCF6EBDC
03AB81E6
810C31ED
E90ED37F
1003EE17
81F8C602
F9A97B0A
0881138A
D1BE8104
E6CE0636
E30DE1AE
EAEBEBFD
F4FBE8AA
21ED81F2
FAFEE0C5
DEE4EEFA
2218F2CF
8138B2BB
9F0381DF
9006DFF0
15F718EA
17F21A81
BB10F104
C4868181
99EF0BC8
06C5B44F
D0E7DCFA
1FD58BC5
008198E6
3330E0E1
BAFF8148
F4810181
BEBA2BC6
EAB004C2
FD811BEF
E469F400
DD810231
09F3DF11
FE1622F1
2EE0F2DC
F0F9B315
22F90481
818E04E3
DDEF2A81
FFD422E6
EA9AECF1
E91DE5E7
FE33EA14
3FFC8112
A6425181
0E21C6D4
CA13191B
5437810B
F21D38D1
B8F2010D
4F13C655
42D810C0
0290810C
63D39C01
179D8E8E
D18681B0
39A0FA98
EB3DBE7F
FED6DAB7
B9F14821
8181E4FD
3BE53D0B
17FDBE2F
81D40351
C80EDE81
0A810831
5BC1F704
08F1BC01
819A1B96
8E81FEA7
810DECEE
25FA15C1
F4042208
04090981
E2C21214
32F3A709
C764E00A
F2DADA9A
DC002711
0501FB81
FCE2D60F
81CE99CA
60F8969D
D981005B
ECA92D0B
318181F3
FED91D81
F4F6DE81
27C202CF
3857CF57
0EDF42F6
81B13F30
F28DDA05
BD0302FD
C7DA0F36
E5E1F028
98DF81A1
F6E0230E
17211181
FC81CC01
95D5E4D8
C385F2DC
9DF6EC15
EB81EB18
2F21A712
FAE31522
F0E8EEB4
7F030CE4
