FEFE1007
81868F0C
F402970C
D9FDC581
FB81AF81
FC8102FF
E8078181
04F80A81
B4F2FCFE
81F90E81
817F7FFB
8109C5A6
12068105
FA068806
0408F681
813319D8
F581F702
BF8181E8
9D041481
02DD0709
0081CFF5
0281FC81
8106F409
31EC8181
B1C4E8A3
D2EFF809
8181F8F7
F600F900
F781C6F8
F081B381
A3080481
04CDFBFC
ACEBF4FF
12BE0D9B
8191CF02
FB81E206
FD050705
08F1F615
03018108
81F681AA
8181D4D7
81ACEAF8
008FFFF1
FFFD8106
03EEF21E
C30B0781
0581F2FB
81D30500
03EC1EEE
8107B59A
81F7FAF7
021718D8
EE05F63D
048181C6
E9E8C705
2D81C381
0481E2F8
FCF00001
01090702
81A8FEAE
81FC94FC
88F9EDBD
C2E3CD0E
81110AF7
04D57FBE
BD8181E7
EC0B07E5
811DFDCC
FDD602CD
0702AFFF
EDEEDD1C
07A997A5
D90FF202
0287D0FD
F2EBF906
DAFD8AD5
81FDE903
FCDCCCDD
FA0A0CF3
0581431B
7FBA81D6
BDF3B707
1BFD819B
D509240E
08A9E108
F0F281FD
DBFB81ED
7F55D893
96EA1181
EDB3DBE3
08EF0B81
DEFC0E81
D5C0AC00
81E58100
81F0FECE
EC817FE2
81017FB6
F5810D81
B081133B
16BEE68E
04EDF903
AF0D8181
A605BAE7
FF81C3CC
F100C300
D0AE8181
0181F8FF
EFEDF2D8
86EF037F
1BDEE5BA
CA0409F3
D3BFF501
08F681B8
C7F0FBD4
01CFA21C
F7B983FC
81F00675
EEFBF9A3
0681F6E9
7F8300D9
DAC90181
F08BDAFD
D8E3FEFF
09810481
AB00EE81
BFF88110
F68181A9
D5F8E807
81F7FED9
0B9CB1BB
0581F811
DDAD0719
04D605D7
FB072701
E4070FC1
FF8181D8
06EA19F7
CC8181F7
FFA42D03
10F78181
FA000BFC
1581090C
0BEDF8FE
FD90EC81
EEF5D581
EEE8DFF3
E8069CAA
B8F48DFE
F2A581EB
0E0EE705
08F9DBDA
E6DBEF05
81B5F430
D981E581
F9F8E9CC
EF81819A
818881EE
BCDD9303
0CB1FF09
03A4D300
0600E4F5
DFA6F3EA
83EBD8BF
FBF50F81
F415FDED
CFECCB02
8100F8ED
0AABC2A4
0A0981DB
A7812F1E
01E2B3FF
81CB1D11
81F4FAFF
81810AE0
FEF681FF
E2EBD8EA
ECE39A81
EF04F3D7
02F68101
810B81ED
F78100F4
B6050581
FCE2F5FD
09F402E3
8106E9AC
F7818104
09CD03EB
EC98F7B2
8FFFFF03
0E04C6F6
10F59E81
01FE0607
EAEDF781
F6F8CA97
07008181
FED6F68E
81B4DDFC
FEF5F5FE
8CEA0383
810CF1FA
8101A006
FD15F707
EB2CE305
CDEA00F2
92BE0586
1FED81A1
818D9094
0311E816
F8EB0809
04FB02ED
81070BFF
D50612E8
E1BE02F8
EC000BBE
0C8102F2
FC81FA05
E3C9F014
D7FF93CA
E8B70101
81FB01D4
AFF1D803
EBF509AF
07FCE7FA
F501FD84
0A81DA8B
DD00CFF7
C70481E2
C9C6E9DF
FB06F0CB
81E30CF3
BAE700F3
0204D004
FBA7FF0D
08DD0404
CBF981E8
D881A2F6
05E7F8E4
F9C0E3FC
81E702CD
11D5E781
8101AF04
17810D81
D5020981
FF94F481
940EFAE9
05DE03F9
08D5F6D8
FBE9B8F2
F3EAF2FB
8105FCDB
D58181FA
D4CA81FE
EE0508FE
FF810281
8105FEC3
DDA9EE0F
EEFD06FB
FFFC060C
81EDFBFA
0181060A
FD02E9F5
EDDF81C9
FF05FD0C
EAF3FE46
F6F5CFF0
FDD403FB
0CAA0BEA
0709F51D
FADAF0FF
E808EC0B
F3EBFD06
E9A4FD86
1A3BF1EC
7FD803EA
E182F502
7FDDD881
CD5FFD0C
AAF8F908
9FF9FDE8
F5ED20FF
327F81DA
7F000706
FD04CFC0
EB02F103
0A07F2FD
F541E9FB
FF030802
09F71502
E4EB2BF2
81010FF2
FBC984B5
8106F30D
FDD20FFD
FFFCECD4
F9810408
F8FF03E4
07F333FE
E9FF89E4
05EF0BF7
00021981
F981DBED
F806F007
F100EBDE
7310D3EA
D9CB5DE2
7901F701
03EA0CED
F414FB0B
F2E70FC8
F00300FC
F8F78181
07FF0314
04F7EEFA
C602F397
FE07FFE7
000EFD0C
C4FD7FF9
F3FCFFF5
FDFAFC05
040614FD
F701FD0B
09F900F4
02CFF300
FFE2EA04
F7F7FE0B
0EF42081
23FDFFF8
13EEE103
14811881
040EAC04
F0F009DB
01FDF10C
08FF0002
8ADD0CF3
EEF3F3F5
00EEE6D0
F500EA06
2410E381
E4F5D900
07818190
06ECDDBC
F3EB01FD
480F0481
F8A2FF09
08390FF4
3C010700
0200A896
07E89FED
FEF91FDB
F708E9FE
F0ED0603
DDB2F801
FFF8EE03
9F000600
160795A5
B10581F9
FCFEF1D0
09F204D2
FBC4FDDB
FBF2E281
FE0DED81
04FA930F
EB0DF881
BB07F6B5
00BC81F9
C30181F3
FDFCCB15
1D1081FD
12A40CFD
0707E4F9
03B97414
FA04D5F9
0605F5E4
81F8F90A
E60C9FD0
0509FDE5
DDFEEE08
DFFBB9ED
81010681
07FD05FF
06A4000B
02FFF507
03F9FD09
F903FEA8
F681EA02
06FD0181
F8EADCAD
01C004E3
DA2102FF
090923F7
81EB04E0
D61104FC
B3F3BE00
0601E6F3
04501702
02810017
FF81FE81
05032981
D08181FB
FB358100
EDF3E5F9
E0F70A0B
1BECD400
E3D4E91B
810F06F1
0508FD09
0AA80D0C
A8C6EF07
F20EEAED
F30581C8
050DFBCA
9E1205DF
BC020C01
090001B2
0281BB1A
0208DD81
14DC0081
F70081F9
F7DE9E81
1A09FFD6
F1E98181
9F0DF8D1
FC07050D
F300F508
08B90FF6
FA0514C7
810A8403
D9A3B9EB
0809F2BA
04080DD6
B71AFD81
E68117E6
0ABD17EC
E2918187
FDE0E2A0
F58119C4
C108FBCC
FF09060B
B90DC2ED
D111810E
02138108
B2F5F8AC
16E7BC04
EFCFE1FC
EDF3C4FA
008D0506
E5080607
0D81FF05
0CFB07E9
02FEFBFE
B006E5FF
FCA1A217
0FF58106
0001C406
EDC7FBA2
06080913
130081F8
FB240BFB
F20F0DEA
0CC413EA
F5A308E8
B1F916EF
ED0AFAF1
0140E5D7
0ED9101A
EF2FFE01
07810800
299D31CC
FE37F2DF
9D040AFA
27EDFCFF
F2F601FF
FFEA8211
D70DF8F4
F211151E
06E2FBF7
0C06FFDE
0309F9C5
07FD81F4
0201D903
09080C09
F2FFE7FD
E313F2D4
D1F7E6FD
C581CBCB
FCBA0FDA
E1FCFFE2
0206F52C
FAD2FEFA
0D043906
FE1101F5
0FF914AA
05070DC7
08029009
E1FE00F5
07AAED20
D39CDE02
13F0C125
F31DF4DE
08F2EAF1
E2C7DA81
18FDED02
ED0425E5
FE10E3E9
0105EB0C
E5F5FE81
83FBFC08
02FCFB05
04F7EFF7
EEF2FD13
FC030208
FCFBCBFC
04F104E8
EBFDEFF0
FB02010E
06EC81DE
F61115F1
8102DF8B
EF81001D
0CFCEA08
EF092DDB
F2EFC0FE
09331681
F8E8F9DD
F7E9F70B
81FCC9FF
080D1712
D524148D
F40104E8
11DB07C9
02EAFC01
151CC2EF
09E90481
810401FA
ED01FDB7
15F8FDE7
F7E7DEDD
DFFF01F7
FADD81B9
F3F9150B
08F8CC81
ECF90BF8
FA06D4F8
8116D7F9
08FDBBFD
8802DAF2
D6ECD9BB
D4FAA508
81C6FAFD
FF81E8BA
E8E8F981
0CF40ECD
0404F313
F7F90CD1
10E9E7FE
FAFAE3DB
0DD60A29
D704B908
F105EEBD
1903ABFE
F281D3F7
21FED3FF
F9812B15
05D5210E
FAD081DA
DAF402FB
81EC9DFE
15D7F317
E8DC2F03
1F03E7FC
9DFA0EEF
E70305FD
F581F3F9
8101EBFC
FD05F9EF
0DFF8181
