E30113F6
C1EE8181
E3D2E1DF
84D3170C
7FFF0AE9
A73024C6
DF7F0D92
AC881B26
5CFDC513
C5261309
F3C02174
FBC7FD1B
0EF2B832
B05A51B4
D0052BAA
81CC7175
4281943F
817192F4
81C37FD3
E9817F7F
3BBAD506
C6161E12
DA47645E
1A9F1B3B
0013BE68
FC7F4015
D90E458A
D9DD5479
ADBE817F
D8621512
BED0727F
07A95E62
E2CB0913
F415CB15
CF0E1446
35AD1403
