663FBDD2
73322E1E
E721810D
DB071622
8C1108D7
350DEBED
23F20D7F
FB2DB8E5
E36A0892
E94C191C
072B8144
4303DC16
DFF7F0FB
18EC7F3F
4C6DDD09
102DFD06
F081D83E
CEE526F4
760F5630
AE14E028
549C03F9
C537E1E7
7F041905
3AFC06C1
CC151B0A
9118FFD3
2C06E417
2EF77FEE
F8F4B242
2619227F
F80C3448
E3D550F7
5CCD0CE9
6781C2F3
E7DCEED1
09CA040C
4313B7F8
A47F0DF1
1821FE02
0AEEBB07
C10AE222
102A25F4
380B01F0
D4217FC9
2F09D4EA
D7F219EB
0D14AD7F
E6F22922
0F5632B9
D51013F5
7F06EB1C
34DEE1E0
7FE2D921
CCF4392F
F9332B1B
EAB9FC2B
813410FD
230D08F6
200A3424
2B02F8E3
C1CAD2F0
81DAB569
79DB7715
27AFF00B
0764F202
06190C1E
690B8106
14A519F9
7FF5F965
6F11D6B1
25EA08EB
28174195
EC193657
3515F77F
15FB23E8
A8CA50EE
F518F641
E7FA107F
2D08306A
A0FD9A22
FE02FB07
F3C50901
02FA0E7F
0BF41720
FCEDDF1E
19C52F2A
D537F0E2
E735047F
18F80B0D
CFD4F86A
7DF4ECEF
7FDAC50E
BB82E4FD
F6F706EA
2B067FFD
DFEDCFD5
FA29E7CE
F22B1E01
1F04F40B
DA007FB2
F7AFFF17
F507042A
7FF9CE08
30000DE5
4CF40E62
654A1EEC
1805D947
79367F00
F2D9A14C
7F05459E
284472E4
F43FC6F4
E9CFFDDD
124F040C
F801EA3F
0F2B0C7F
451F242F
FE28F920
10F981ED
E7A63AFA
05030A01
0FEE7FFE
FE6D00EF
FB0CFAF4
1B41F9C8
370F0CE0
BE1949D5
81436E73
