F4078100
44067207
E207F991
D11CD6DA
7FE8B7BA
5AEFE451
F8DEDBFD
570A5CF8
2F817C48
0736C3A7
91373E90
2DD65637
D981739B
9EEA4AB0
7F15B291
08DD7F63
E32217EC
18CBFA1B
2BC6F9AB
1B034620
DDCF7FDF
CDCC16E7
1A0C7F17
E01ADDF8
D1273508
12F27F10
0B9E0830
FCB681D1
5DF3C57F
C9DB278C
CED1EEE8
53A363BB
7FA20E7F
B17FA49E
817F7F7F
7F7FD27F
B96F2155
86B87F7F
3545B281
7F81A47F
54E2E156
DAB0B5F6
6E5EFD34
54F9441E
D25424B3
7F7F0B1E
6B7F60ED
2CE099CF
D74A5498
EB001749
08F3EB16
E231DBE2
FC0FF0CA
B8DD0D18
03F0FA31
ECF9CEAF
17FEB400
8124E481
A9A67337
27D8CDE5
0CFCBB62
CF9819BB
B126EFE9
0093C23A
5AC0EA1A
DAEDD3CF
38D408E8
F20AF6FC
FB15B6FF
6B26DDF7
E4F4040A
1D0111D0
