F70D01D2
CA21F404
02E4EB11
0C0A1B7F
0C371302
013CEBF8
EDBAFBE9
E0E5FF01
17FCF313
D5FFD7D5
FA1AE27F
D715BEF8
03670A13
15210E0D
BC18F9D1
0ADDBAFA
03FA312C
E72F13DF
1414320C
DA24E715
FE250A55
0E00F62C
EF061AEE
15814AF6
F9B8EDFD
3FF6D248
CE028366
FA172D1F
13D07F07
E7E08702
E5F82BE6
E5F94EDD
4722ECE0
ECDF08A8
F5E6D803
7FF80614
06FCE9EE
180766FE
030D0C2F
E1F9F111
1BE52463
03DFFD27
040590FC
1DF47FEC
051DC039
19354505
D6BCFF36
1C3929C1
3BD525E0
A4272E98
E5006FD1
E60FF254
311A1152
0D03E63C
F33B4396
198105BB
ECFD142E
E42EFB15
3AF1F42F
FFE82306
7F07F7FF
1D093AFD
E22910DB
F6F5230E
4D3EDD48
451912ED
1757E3F2
D8E20F9B
BAF829DB
001A2506
650CFFE7
1D81E41F
51CF03FC
F7FC0D03
ECE117F6
11EC0B7F
FF0DEA20
25AFECF9
A4E1102E
E3FF1300
693A9C22
BFD0381D
81063BE9
B919F9FD
D5BD2117
B5C837CA
0EDDEC36
25EBE0EA
D4E6CD72
13C9FD3B
E4410629
AF17814F
380F2CDE
F42EC2A7
C1FB1FEA
0BCBF2DE
D900381E
EBF2A5E2
09EBF6B8
E7EDFCFE
40C97FFD
E2E1E4F4
EB5A3631
FA1DE6F9
F103F72D
16F23A1B
DD1851E0
0FE40EE0
2AEEFA27
4B1EFEED
E2E5550F
111E1F7F
66FB0102
1E7FCC18
0D5BC51A
F21934AE
F6E607EB
E6BC05E8
B0730F02
A55C05D3
F103DD39
CCFFFCFA
FEF6F0EE
0310D52F
11DDE97F
1EBBE9ED
0016220E
D90427F5
E00329FA
BEF6E805
C317D5F8
0B1017ED
E37F0FA3
25124F13
91E3E3ED
1CF55E0E
2AEA450B
FEF6FE1B
F517E3B4
FE510BF0
00C8EFE5
05ED157F
2B1AFFFF
FDB7EDD3
E1DBA8FF
04E85116
22EE403A
1EDBD6EC
BA123912
CD81F3F0
E7FC8EF4
2988EA29
FDFD1603
FFCCDDDB
CCDD02E3
5D011EEA
0146CEAB
7FC72509
1A25F94F
116866EB
F3FC2A42
1098451A
E4CFDC17
2C1CB4AD
32B6E2ED
DD116333
0502CAF6
612B7FDF
A459F214
03D27DC3
1818F0CB
2313F881
2ACF2142
028DFDFA
FA3110C1
DA002FEF
C3F71823
EDFE0BD1
04093AFA
D707D4E5
18007F0F
EC1AD624
2D76DFDD
110DFEE9
3F25D4E0
CD675C03
6E09E8BB
26E70ADC
0BE281CE
D3D246B8
CC04BF08
8435EB45
EE0F8456
208BDD2D
B9D995DF
21016417
D2B37FFA
CED53AA1
19DEED2C
D132DDD7
F4C621C3
1208F381
E9D6F506
450C1BE5
FC183102
F9E90227
DE2106D8
F6062115
2429E3C8
CC00E2DB
F00319DA
5AE11C7F
1995E9FD
D24636EC
8596523A
3AD1BC04
0876E5DC
BB2BB2D4
FC2B4903
1CF95BF2
FAEE1122
620C0AE3
7FEA5BE4
E4D20AEE
00F84CDB
19602609
1E15D5F9
CDEA22FE
7FFD20EC
D4E4DB18
EFF8E409
B50D1705
0123EBE8
267F69EB
3DF1F9F1
3A040635
08E5C4DD
7228D7F5
FEC60FAC
B6140702
2015E231
081DF407
EB6D0608
D62A07EC
EEFDE235
F3C9F3E0
03F0D2AD
F681E6E8
CD0BD3CF
133FB1F0
5CFC4DD7
FCD4E710
F6DBD8F9
E2FAFCF5
E4FB1A22
BFEF037F
