AD4AFA2C
DE51D752
BE348400
E9EBB64B
B9C2E0B2
2AB407C3
4BD85636
B55019EC
B4AFB55B
BF7FC56E
387381A7
BCB38128
C4B4C2C8
410FD1FA
63977F1E
81664BCA
1EB7E643
D02FE43B
4041D2AA
B3A9CBEB
09ECE0F9
2029994D
1AB227E4
D01737BC
B27FB858
B266B4EC
81640AB3
D8C3937F
D3B5B0BE
2D81A4FF
77827B54
D77036BE
1DD3817F
817481ED
327F1581
84818A64
81818181
7C39906D
7F815E79
AF7F7F81
61B0CB42
C52ACB01
415025D0
81E0D1F4
AEC4CC98
7F64817F
18E30435
D80242B9
F738B43D
FC15D9A9
D85753D8
D4E5D343
EFBEC5F9
FDE6D84A
35B71245
143C33F9
5DEFBE4C
AA0DC481
FA525EC5
AFE7EF4F
D7C1B8C7
603CB476
39D1EA7F
FB1D2DCB
7FC1E91D
E410F4C0
0C182DFD
B9F60C22
B9DFECC8
543EB72E
111FD367
F0F309D5
