EBEF0D0B
047F1172
05DD25BD
B1CF0E18
0201C9D8
01F2F602
0FEC21B1
1A18BAE6
EBE01834
7FC8D0FD
D514441D
D2CD6D10
F2FD0CEB
52F27C95
999507F8
6C1D2FB3
2CDE3E50
1461E7CC
0CAE5907
D9CE78EE
C714C4D5
D728DDA3
F581671E
16E71B81
31B4EAC7
460E5170
B1054C21
161C05B2
EDF02B0F
CDC51AEA
E9DF7FBB
C7098426
81F01719
0AE18F25
8D0BF3BC
7C4A0497
481D3FFA
EA2A63B9
F46A1B34
1A05C5F5
EC43FEED
1CC8B0E0
CDF92138
191CF0FA
E61B700A
CCE838D7
8124221D
39DBFCE5
0DF90A13
0013A9DD
D1191F3D
B7189B13
22C7E509
EA087F0C
8B40A00A
E820E816
FC06A4C3
F87F1415
FDECEF30
C41F17D2
1AF3F804
F101EE2E
0A2C0FFC
2E1CE20B
3220D623
BAEAE8F0
0DB4026C
FE08D814
D36666E9
2250C24E
FF12060F
DC8169CC
07E7E4ED
E71E091D
235DF99C
0AF6C9FA
3DD01FF9
EAE115CA
1C06C70A
F77FD4FD
F00BE27F
FBFF0509
1FF817F1
D60D1218
F7161312
E5FBFE05
00CCDFFD
FC1E13F5
2AE82C3E
E438E2FD
19BD398A
D7FBE1F1
CF07D3D1
2225EA35
3F81D5D6
CFAC1B1A
F1736755
07E90FAF
EA00DC22
AD95364B
917F8601
6CB1321E
1A9060C2
18C1F009
3700B564
DB08EA37
D507177F
99C311FB
D9CD33B1
EEEA6DF2
9E1CE4F9
E025F7EE
DC22FDBA
B84828C3
318C3E00
C107133B
EB06CEF0
F0F6B31C
D62E9B3C
CA567FCF
CF4BDDEE
36FE002F
00C1F708
C8EC0FAC
D8000606
25BEFC24
E10CCC02
F87F252F
06125615
1A0E3F32
CED51ECB
FDE2555B
BFFC192C
1B37EFD2
67322281
D3D5FBDA
0515F33A
E4E507EA
00080107
E2F50514
ED067F26
1E11FEE8
35042322
F3031021
EBF8030C
ED1B3935
1BD60ACB
2AE1E87F
07D80DFD
447B0EFC
2C46D3FC
CF0D01F5
CEDA0D0C
4EBEFA05
A21A4217
F11C7FDC
160536F9
0CD20DCB
F308443C
450D085C
E5071CEE
38580F3C
E2B11A0C
DCE2E913
1591D713
AF1EF6E7
7F2E188E
EDEE1CD4
FFFF25CF
0A00122F
23182231
0D30D3E9
0D37C739
E90F082A
C0424CED
4B817CA3
3107037A
8B07E200
0EEEE31E
B7FF8123
EFF8CB3E
1E501108
26D2AE4E
F4AA4AD3
CD90DC01
01D7140D
AA5800CC
3065F8A3
0B812EFE
4FFAE5BE
88BCAAC3
0DFBE65D
D7E81E27
DF280BC3
EBEC16DF
D80AE81D
1E812008
D76CC51F
DD30BC1D
26DDE8FF
50E1EE23
41D63722
3BE534DB
0704FAFC
1EBADA30
D5A8BBD9
0EF03AD8
E6117FA1
F1D6BA17
2E7FB6E1
C72E681D
A92F0FE3
2A0FF513
B5AB2607
E31E11DC
1DD78725
D80B226D
2214DBCE
11DC1324
8120F9F5
0E25180B
D916E505
F3E9F4FC
FDE20DF5
07F8F343
0794E468
14A770CB
8109ABCB
DFE9E520
BFF4A5BE
5306CCF9
15144616
F6E3CB13
010EB81F
ECE32944
CBDA0503
FCFBFAAE
BC0C0620
E4161D7F
5354D71E
F5223EC1
F2F3020B
F7C3E91C
DBD46724
0BE1B3F9
36FD00E2
1203F900
DA307FD8
F6E9FC2C
4AF3C6BA
C6D018D4
D7B412A5
FF41F2B5
B5FE5F93
3E9393E2
CE471B7F
1006EA0E
1302404B
270C23B6
F0E00A67
DB33E2E5
EE180001
75135E38
34B41D7F
FCD6FA30
FB54C481
26EEA91E
290CB99F
FA64F0D4
EBDC1C20
64B7A6FD
BCC6FDE4
222D3011
CEF90D1A
3501E716
DA411A41
DF05016C
382CE4F7
4C22E3F7
E3F07FD0
03233BE8
D3232402
3609D839
1FFD980C
142D1A57
38FD03CD
1D81C104
98E406C1
CCF6F17F
0E552BF5
EDE7060E
DA13FFDD
FED3E6C8
F3E91F0E
FDD417F0
FD1B20CB
D4235ACD
3481A5A8
D20DB555
00EB1116
B539FB7B
32061ECE
A4FCCA26
1AB9FB27
2B009807
D2BE12ED
FB97F2E2
0807ECD0
FDC66ED2
1205EEB4
FE042B11
8117EAD0
FA2708DC
0306E510
2BF40488
3215B3E2
5936EEEC
04E53DF2
21EA8135
FAFAEC4E
DB023ED7
FB37F20B
EA024BFA
1026F912
05188110
080D1EFD
CC1F05F4
21C4E3E3
0B7C04D7
162703CE
1DF93117
00F401E4
0FDFFA08
22CA8110
D5E23222
276C011B
3712D317
A8E50FE7
15BCEBFB
FCF60A7F
FDF003F1
D622FA10
F124D91B
0208CE1B
E411081D
FF337FE6
F6EA19D7
130C15F8
40F9D849
32F71CEB
C0DEA1E6
E3E331D7
1D0DEECE
D9EDEED3
5946C6DC
14E8113A
4E1EE439
F8F1A78C
48E3C57F
657FC7E8
16C1451C
F4F520EF
7F23EDD0
EFE8EC4E
08CAC32D
0227190F
E3D3C2E6
F701E008
0BD33DC1
2408F2D6
FF0036FD
F70DCB0B
EDD5FC4C
2DF2E9F7
7FDF11A3
91C31CDC
1BF1EC55
C8E481DB
3AC60DC1
25AF7C15
0C17ADA9
0210ED18
DBA105A0
3A4829B7
E0C6FF1B
D57FD739
3E11E9D3
E5D1170F
0E21EF12
F72D0310
76E6F8FF
05F40335
091DF67F
E65345AF
DEEF490A
AC1501F3
EAF3F4F9
0C1BCB18
C9DBE501
F507EE01
17F6E87F
E4210106
DDBF6B0C
A13FC40A
FEACD6EB
D24B0412
E2CFADF4
0210650D
630CFD04
25C35646
2524EEDC
C5A45F6F
0713046D
2324EFFF
C47FAFFC
F807BB38
35EFC155
FF317F32
EFF0122C
8A1D0DC8
B428FBF2
2813E49E
E286E141
DBE025D3
3365C4FA
816BD0C5
14F41A01
C68F1121
7013BCBB
DD181B6E
04FFE7CF
C5CF9CD7
F75E8337
B5C69CFB
D4FBAE0A
48FD215C
EA517F38
F1A412C8
9171D6FE
45CDECFC
F6FB2D22
86E8EBFE
EC2CAE2B
D1199305
0DAEE5B7
072F2F0A
9120810A
E6EE01FF
45A2F211
CBBEF120
F1E67518
E4EDEE45
B433A282
EC3917E0
B212FDBD
7F8C40CD
F60711ED
E4F9CD1A
3BF1E0BC
B91EA7C9
B011F2AA
16DED52F
7FF1160B
16D907F4
B6888114
1D696DFD
14CAF73A
FFFCEBB2
E799F2DE
A642CC94
4A321904
2E2C2AE7
34E6BBF3
A651FED8
30ADFDFD
B6F2E58D
FBD7AF9B
81D3E948
3BDD42F1
D53331DE
D9DAFEE8
4481D0AC
CB40E2F2
F4023EA3
B5F05F36
0BAF23E7
DF58F866
38260B18
F1FDF01C
0C2FB0BA
1C3FF7FD
1F811026
DEFCD9A9
600AE219
04E21434
12E600DC
C738DDF7
B803FF1C
EE3023E9
3DFB5737
0224D7EC
2E148414
28815C40
EAFF1527
EF3B47F1
03B30214
0633DAF5
C2F0DA49
ECDF2335
31FBD80A
33CA81F8
F2744016
