961297B2
54DD138C
11B30AB3
F0CB38F9
0F3E49DB
3A3696A0
CB563B6B
FD0AC4DB
11F09413
29FE9A1C
FCC6BCD2
084CE907
18539A7F
B69EC210
37B77C7F
CEEDCB6B
1486F75D
F25A5281
DBCEA15F
2CA5FE2D
A67942C4
AF0E267F
81278E9A
F51993B8
A37581F1
F0176781
66856DE1
3B16EF1B
036566E8
A4818C39
4DE47FE4
E4EAB0E4
6CEEE2CD
867FD8AD
CD300132
E6BAD010
2FE1B6DB
EB487F48
A7510FCA
D416DDB0
E700C0CB
811691F9
38B2B7F1
2EDAE6C6
DA0D17E1
B5A4810E
A5A154D3
7FFEF1D7
F7555EE7
7FAA8104
5A2B84D6
B80F7E2B
023A6903
24A0C794
1549F3D5
3D7906C5
7FB7377F
5238E281
7B1FBBEB
2E7FA561
69DA9A5D
BEF8130C
55ABC30F
C8DCE97F
69EE7E7F
4A16146B
7F7FE07F
7F7FF87F
92F95A32
8181642B
7C7FAC7F
0D1220C1
16645CDA
187F7FFC
7F747FDA
7F20817F
0A19E340
18CDCA76
51ECD414
3AECE2C2
6AAB0CBF
5C225E35
1EC07F0A
372F8109
49B2EF2F
25091966
A3407F8B
8D0209AD
0ECCC6C6
9A33EB4C
3228B1ED
01B4C6C1
AA817FBC
7F0DE00B
8181C718
360296B5
AA057FF4
48AEBD35
513998FB
F4FA3428
1A817F13
DFB43BDC
D7F688C8
7F7F2381
4790DB12
0B1304BD
F23AA2ED
21F1B41B
58CB059C
D69D17A8
283FCEE8
F0E32434
44136807
26D2D270
FAC22B53
BDF60577
81A02C7F
C1D6F4C3
2DC8222C
07677F9E
FBDF11A9
1F56266A
037F2381
32B3C414
09A58F02
19B2EA81
EE52C329
AABB7FE7
7F819001
F5824B09
060C52F1
11D1B3BE
0FFA5009
E957EFF2
97CE69CE
8AF605CC
DF81D9E7
3B0CF21E
1B28FECA
09C9070C
8114D7ED
6EC808C9
AB41D814
E47F16E2
