2443000017F5F64C23FDE70F003A28C5
A207133195FB8CDFD0E7D01FB6A720F3
007F2A40A9BD0EE004ADBAF783D60EFF
3E93060FC6BD051B050D066CFDD875FB
23D100007D5E04680D19D49F007F00F5
37F8182BCFF6EEA28122F16348474720
00D1C934E603C5E60525EB1B36316B67
DB2FCCC34F09EFC8620C0559E904554E
D26C0000186CDDEB2506FF0C00498CF4
492C0035D43A10D648DBA9BAE904E7CE
00428114C4F520050319C00A263C2422
FC0BFED4C6260D21A0D7F5F8F920E9AC
B4160000E6E462FF06F725E600D8F2CA
357F30D6219FE9FBB8C91021E71EECCD
00A930FCE705F814FBEDDBEC0AD8E8F4
C05A0802E50B22EFDA09FB3A1BA9DC2A
035000001DA0A3AA0204F6C8002EBFEF
1BB21AC33458E8B4C0BAFF458E691687
00FEFCBC3EE908BA631BFEE82FC909CB
43217F2A771DD1DB0FC5F4FF02962BB9
EF7F0000B0B2F5D71CFEEA5A0008006A
FED60EC8123D09A70FCE3A1DE237DAB2
00E6F007D70F0C991C10320A57482FEC
F4B1E2E2BB402027243F1AAC25180DEE
BEEB0000F0E60225F3E8442700EDD5F3
FB00FCF3C0F9C93839FEDFFFEF14B121
00F222B91AE309E0FBC3F581B924EE31
2F0E9630B5192BE9EFC3E2D0B31D01ED
E5C30000D9CC9AF215E1FED4002EE9D2
3BDF9981FA07012DB3F423D0ACFFF125
00FD0ED2531F03A1462EF310A2100FF4
E8301D5F13D8C0EBDB20F3DB0D01EB1F
E8E80000DE0B2EED01E73C010000087F
A9FDDDC918D2AA6E3A9CF8EEB3DE01C7
00C4A2E707DC18FBFAE6FDFB4D0120F8
DAD2DDFFF34C911622CCF9A2FA1B072F
4D450000E0256803B5CA1D0E0012D42F
C71605ED4B3CDCFB1411FBC71A4D21EC
000519874101271F01E11A11CFBA2428
ECB8F59E53E9BC0ECA0DFFEC24F77FA9
2015000010C754B5DFFA1B41000A1217
FF5BE713F70C221DFCCA18FF11EB2417
00FB0ED8E4DA0BC516F9FB0EC219E471
E5297F3DD6EDF95FF0110E0BED302DD6
582800002B57ED24F027DFA80032BCC9
03100F260EEEFFF1BB1DBD3F07062D20
00FBF710C2290621761C1FEE3837150C
0FEDDF0E1BB07FD96815EE1AFF1E526A
16F4000003C410E113FD052000FF0CEB
C7D5D8DFF7FB81EB08CC2448ADAF0035
00E0F42902230016FD4D0226F20DFADA
2D1A491D414DD1F61808D9E12F4CCF16
1AF500000BDD73E9DDD5F10C001017A5
38092281EAC11CE017DE2239C02B46AE
0008FA2FF6160CCD1A14DB01E31D1EFD
D62CFF5C0EF33CBF15262913D309D8EE
F946000018F7F7C30700F63100DF17FD
0D94BBEBE603AB0AE1D0E805CBCFDBDD
00E1B2F9DFE50856DA00F044F3CDEF27
B17FF824386F36E30BDDE5C313D3D2C1
0018000009EC1F7F22DC09D600BDE8F0
C8273AC839D51C4E052FD4102EE870FB
00EAF01E0F05CA0FD203EC0D75EA1853
ECE422DF920DFE14F40DEEE349CF7F5D
ECD20000DFE4A30010FC031600D5EB38
EE00F1BA3FDB0C3B7FCB09E2C0AFC909
00E1F9EB346DDD0C402F155722E319D7
19DA4F9C001BD5E3CB010E8509C10F60
00000000000000000000000000000000
00000000000000000000000000000000
00000000000000000000000000000000
00000000000000000000000000000000
FF320000CE9D3C9502E4044C001E8E0E
CC02F5610E25055FDBE03AEB12073CC8
008145E915E702DE359416FF1C03C62A
DAE290BC0C58DB10D10A10F8EA022524
00000000000000000000000000000000
00000000000000000000000000000000
00000000000000000000000000000000
00000000000000000000000000000000
1A200000D90933D90A001816003BFC07
033B12CB1E0CEE0402F86A19D919F812
00E2FFF2F7030AE609161903E40913E1
097F460E633EEDFDDE080CEE07FD05EE
09ED0000170B56CE1A010CC8009DE75F
2813EEFAE2E1F449C4DDBCADD7C11AE6
00CBE04181EEC8042EE1090CAF52F93D
B026E8241CBFF5F99200F5700A222E28
1FFD000006470BE423F62C3C0048B3EE
160D301226050FE211B4C00BC242EBEA
00BE44D00E46140A44FDF1DCCF1713A4
32F2DE0356DD11E0111EDFEF34BC7F36
00000000000000000000000000000000
00000000000000000000000000000000
00000000000000000000000000000000
00000000000000000000000000000000
060F0000F0021549ECFFE8020009F5C5
D95FC9E2F6AC0EE9BD09F7F42E014AF5
007F25FAE7000643DD1AF3F8DBFBD4F0
0916E3011A13E500EDDF071708BCDCB0
00000000000000000000000000000000
00000000000000000000000000000000
00000000000000000000000000000000
00000000000000000000000000000000
F7F100001DB0FFE7FA1B1929000A4211
A451C4D623AD04350A6CFD2A1092FE3E
00C1E21BC870F0AAD6F1F515DA810AF5
021AFA47E00EB30518F5F9FF02F8290E
E5FD0000D3B50E0201F005D800D54318
2014F69A422EE2185439D40EBB2AF7B4
0024382BCA81E3A979C4329D2422E5E7
29B3FE1FA091A8E1101EF9081D0842BC
DED600002A33D5E307FAE17400F63C13
E212CE74E8F9EBE4E33A1808FD4B9814
00E62E074B2A0CFE320BE1CBF211EFDE
554600D1E3BC20281FE0D07F0003F32C
EAB500002FD4F6E7FBFCF34100D80010
35CD36ED0CC6D52526A4FB32D8C30EB3
00C5E27FE5030A18E6F7DE1C51122F35
04CB16BF04EFFED500D2EAC5F407DFFF
00000000000000000000000000000000
00000000000000000000000000000000
00000000000000000000000000000000
00000000000000000000000000000000
251C0000D2CE16BA16182357007FADE5
01F70363F60BF992D3AA1CDA0AF43411
000E22A68FD021EC17D9D03EFDD709FF
500B0E16CB2007DCDAE8F60DD7000E0E
E8E5000009E70719F7FCE71100D914EE
ED00092BD2ED0BE5D712DAFD2F05F01C
00EA0AFE7F19183C25020B12D905F20E
1D1DE4F01510EBF024F4FC0AED2D2CE7
1D3100002505123DF12310EC002ADD10
3B590FF90D3F12D5E40FD4F219EFFE00
00DA34EBE4D90510E611F6E5F23D1CEC
161F25241E1C7F07072C1635C8FC7B23
00440000BD54E81506FD2C04009E2421
C4B53D81FC154D5B18D2A420C42F10EB
00D2D1B72EFBF7DBE5192AE2B3F6F2F8
39E41EC75C241ED45202DAE0F83313E8
0FF70000C02807A0F0092A61007FD4B2
E902D6213F4AB631FA7B0423D9CDDE2D
003DD6D7ABDEF7D80FDDEEE7F3512319
1B46CD70BBE6F2F4F1F2FBFC06F2E101
EA7F0000E1EC19E71ADEDBE000F1D2D3
D54456330A3AD0202F11E9E9052CF1E7
003307DCE20DF4E7E503EAF628EE0C3E
D33B27E74AE445E7EE5407CC19E028EE
0803000021D4F234293027EC002101D4
4E05E9F652ED06C70CD34A67E0113829
00F9F70F371AC623DC11F00D81C620F5
291814C2EE04FFFBE4F315EFF903262B
F10600002000EF1ED8F6F626003E3B01
2C3BBD9132493F330DD50DEC28AA2FC2
00C037CF81C62908DDE940293C5CDDA2
5CA191235717EE2FF9E703A01315049D
D90D0000583D110C1D55E7EC005CF55E
3F8E0307AB01CB7F0C1A05F02F121D34
006DEDEFCC4DF02C11D6DDE9EDC9E210
FE2DEF13C0E2351734D914D3D2F5FD2A
0F040000E9FAF515CEE5EF4A00FAE8F7
FE5EA4C7282E040FD74A12C9212A90F9
001B33BBC4B413070DE50F010F7F20E4
38D5C70FE2FDDA23E5D9FBDE03F30BAA
0EE50000D8980BB9FDCE343900A70B81
5B0E11F225FC12E225F22922DEB424E4
00C4DF5523F318C6083102121C4FDDA2
EE10180011FDE90103016A1DFF7DA7E9
565F00003C28973C390DE8A80061CDF8
F6B3E2E20CDC1B0CC4A09A27412C7FB2
00F89109B52DF731083DED3E00192CE3
D9E99CA87CCE3AD9E9F408241BB72862
1C130000E2A7DBCB023A04CD00EB0CFE
7F68CFDA08E6FCCBD8E859B4DBE1FAF7
00D2EC510922E5F0292016CAC57E23C2
CC1F1C3937D43A4401FE0026F420C662
00000000000000000000000000000000
00000000000000000000000000000000
00000000000000000000000000000000
00000000000000000000000000000000
00000000000000000000000000000000
00000000000000000000000000000000
00000000000000000000000000000000
00000000000000000000000000000000
3D3F0000C7011D08B827240C00FCBACF
E4BD36812C1BF3F40EDBC849ECDC0313
009AC347F7470AA51B401A1FB745EA25
D9BB1AE0DBDA1ED30C4C181BFCF03B24
B7FC0000CE2A778112F2200A0006DC0F
DB0D0163F4FCFD4AF9CFFECFE8E5D915
000746061338F305210DFAFBC556FADA
1154EEF35EF3130BB0F7EF2C00CAEC46
DBE400004F02C62AD5EA2A8D000F2BF1
E22A8E20D150F481D1C0D038D543BE64
004908D7FDF8F93137D70BD1F54BEDAF
1948E34307EF0D175DC5FAE6FCAC12E0
160F00002F42F9052CFB034F0025077F
FCFEC6F60DE512660EFE0ADA01E51817
0006C81EE842FC20FAEC133B03BD071E
DE06DC07F520AF400D00FB0AF2FCE01A
2A1A000021EF19F0D60E135C00CD2108
19D6EAF2470CE9ED06E1F6AEA9BD0941
0007E70B6B51F3FB24132EE2C17F19DC
12C60112DA0E0221F5DB2241070FD11F
F32A0000FEF698164E35FB37000AF20B
568FF19E1EE92AF71FF417EDBF06EB1A
00E4A415F081F89F0A381FF1E50271F9
F3A2F92C1DE1D8F7E7FD1DBA2EFEFCCA
2BE7000062D7C2A4131E00BA00C5C9D7
53CFB9692AFD8FEF0D5A7BC5E8B5E7FB
00F6F9147D2B1A7FE7C8BDB71B55C727
C22BE67F2D44E7FB11E9CEFFC94CEB3A
00000000000000000000000000000000
00000000000000000000000000000000
00000000000000000000000000000000
00000000000000000000000000000000
10A10000F9FE3531BDDE2F5800FB0C7F
2CD556BD93B95E1EB65BC5F5F7D1BD2F
009212D2E9F0FCE70071C975DD533CDC
F00D13DFE642FDCE6516F4340C0BFD0B
18C30000FDCDFC1E19D3203A00B40DAA
A9073BE053B7E8E87F32E15240ED27DB
001F0A18DEE60619DEE8F2F130E8EA55
EBF018A00931EEFBCB1403C6DE1117E1
E0090000B1317DDE0FE008A2001FE8E1
E8B07F26B718F59AF4E51B35EC21F12C
0012F8E27DD4FCFA0BC3E5B4340CD003
D0495408CED7DB13E35EFEAD13D5B6EC
00000000000000000000000000000000
00000000000000000000000000000000
00000000000000000000000000000000
00000000000000000000000000000000
F3E00000E5D5173AFDFB00DA00081D3D
DAF61EB70508DC211EF924FC0E0E4808
00060CD6CBF411E00FD91F190C03E117
02EEEE0BB3EECDFE7FFCF3E21E1008ED
00000000000000000000000000000000
00000000000000000000000000000000
00000000000000000000000000000000
00000000000000000000000000000000
CBC90000D3E8094F0C0E2AA500DE2AE6
DBF613B51DFFE60942BA17DCD328316F
001FEEAFFCC5FDC131FE1BFCD81C0517
BC81ECD502EDEC0024FD33870CF602DF
0C1400001D02FD0201F80A6700D3F3F2
06E2D1E216C8D8100735EFF3EDEBF4ED
00E520F5140905FCE91FF711E006FE08
11160900427FD8FEE0E80D0CF0F5FAF3
3868000001FB13290815422C00F89801
09E00524FFFABBD0F360AD31DEE9080D
003CCD7FB4ECDDBCD7F3F5D1DF02F9DA
462B34AF193B3BC0DBD90D4F14EA3009
9E2B0000101EFA9EE8EC035500541D55
012D1B1D33F9CE22EDFEA6EFD1B7EF5D
0036D1EC9B25F5C58148FD0B06160DCD
3243BC0DB5262EF4AF03241CFB350AAE
1303000007E32C0904F40DD30024F449
2015E708E31BF6C6B9E17F2BD2EF0B1E
0023DCE01FD606E110E61EE7DF2AEBFA
1EDA423598EFDC1BCB0226D613163105
222F0000E8F320BE0B00FE06000A0E24
C40E3AD7EE073CD4F9E0D70D06CC75EF
0002F405DDF717DC11250E1C41FDDAD4
EAC91FF67FF1F41FC5100227EB0103E8
053500000B64EBFCE3CACEC9002DF42D
52B62A89B4DB45720C90DEA2DBE9BF16
00AFBE259D4BE70B142B27D11CF90ADF
1BAEE00ACE507F06551FF3CAFE0BDA65
00000000000000000000000000000000
00000000000000000000000000000000
00000000000000000000000000000000
00000000000000000000000000000000
00000000000000000000000000000000
00000000000000000000000000000000
00000000000000000000000000000000
00000000000000000000000000000000
297E0000C2F8B32DEE10103D0071EFD2
6D8A56767F213122BAD9F4D5C1CE2914
00430D000BAAE1BB0BC701CD8BE324E4
0065C5E63A8A6DFA0F04596ADCD6E9C2
29CA00000F162500F031F70D0029F21B
217F05392F201F7BDC17FADC3945F51A
002226F2E4EBFB12F8EBE6A118F5EC35
D621F1ED113C252C43E9F245E80EE0FA
FD240000C5AB53E02B161618002F48F6
120E32FE36E5E2F2F5037C4781921EB5
00D0DBF82DD2FD0D140E180EADF734BE
04383BF4FCDF35E467EB00F707E9740A
00000000000000000000000000000000
00000000000000000000000000000000
00000000000000000000000000000000
00000000000000000000000000000000
261A0000EB1204D821160F1B0010CED1
FA25E9E3BC190FB5BFD2593D95031BEF
00C4F1D7ED96CDC7EC371B10ADEEE1CB
29732A2331E61DD5D95EFEED34C77FFD
13D000000EE4FDCB48FC200100B0D9D3
0FEFE2FBC111833104D30335BCDC36FE
00E6D91902070210FB8F04CA20C881CA
100905F60168DB2F1F99D4D62FD4AB32
D8E70000FFFA0F4B1CD404BB00E1D9FE
FEF06D36EBFE1C0DDCD14512291BB09C
0023D3491C960DFE6812E5367FF00435
F9CC0D02D5A83CD4D531DDE90E3617C1
F8430000106E122C2117120B003EAB1C
FA1FEC13AF33D2690A1DFE0AFB10DC0E
007FF309BFFDF2E525F6E80BEF15E918
CE29F9ACF24709CEFDCE2FD5FED01FFB
FC5E000029D6E3DFF309097F00FD1218
EF20F623021B3CC1BF3CE82E00C5DD4F
003F2D47FCE5E8FFF051022492E3069C
363A772C291B0408EE141330F9E052DE
00000000000000000000000000000000
00000000000000000000000000000000
00000000000000000000000000000000
00000000000000000000000000000000
F7EF0000EEFBE5FB18FCEB160026D1EC
EE1E09EBF2F7001804090DFDFFF7F608
000CEEE081F501E1F2FAE616F9EA070B
FD160802FC060713E1F410E8E50FF4E8
E8F6000030A3E41C27A6F8F300F56CCE
18CBAE30211B2C810E0764EB13A8C14F
006B66F82E15E13CD0110D06F316DDCE
43D31A5C0430FBDB4500190A02BBD4B7
02C60000F2F9F03FFAEAF83000041581
39FDF20847E4EB9CE3F125C12C2E7828
002E001406082BF2F31BD7F2FC3538F6
E210F0E937DEEF20E212330AD36F1FF3
135B0000B9DBEFC02047E20C00ED1F6F
2716B7C9EC3D05EDD9CE33EBD9E5F80E
00EFFE06C7F6DAE27F3CFC0531F7B1B7
FBD65F07D96C0F35A02E06DFEDFB0B26
F1030000ED0EABFF3AF638F6004002B2
30D486F8EE02B5E6F8224116E016B801
00D7EDEBF011E5E57FED2602CFE220C6
EB19E3244219EFD90C201CC9D6DFB24D
03E30000E616BFCE1D1F3231002F2205
29C409222E82CE1B0FE77F14C8D510DB
00C9E419D3E504063EE12A073FEE3B38
2F13C8E20C07DBE41B0513F11CE5000A
10DD0000130C32BA061C0818000C3208
BE15D9ECDEF6E47FDEEFDFF621B00002
00DDB2DF05BC06E9DAC61510FF1636A6
1E75D59AF086BF564208FBF6D8103136
263B0000254681FAFDABDD0D00B2C49E
EB366FF825ACF1D3BD44B41F1309B618
00FE877D1AD0DC1927EBD95D44194A42
2792E806FFD12FA52CEFDD4DD0362B24
00000000000000000000000000000000
00000000000000000000000000000000
00000000000000000000000000000000
00000000000000000000000000000000
10F60000EEBD1BFD401C290E00F1FDE1
3219F3E97FD2EC0122CCD5051BD6F60F
0007EA2A27340233560702F9FC1D63D8
F9C39EFAFCCAC2FBDD05F716E1EFE048
F9E40000F01FDED6E31E1DF200C70110
0EC04A8EF8D9F338CA5F05DE3C27103B
000FF01A0D2CFBE7EF10FD40B781000F
E109EEFD4257FBA2343001162A281A42
3A0E00002DE3E0EE0DD519020090E8C7
2E38D5B8EDEE061ADFA9F1EA1EF203DE
00EFD106070DE617162C05D0FB202AF8
DCF149DE7F3AC4EFDEFE12FA131400B8
451D0000E8B57BE106E20BD60081D8D1
414A13BE66FDC3C8BC39F93A33FACBF4
0002E0DF39AED1DC06092EBDF56C1F15
D131EF363DD9DBDDEE1E32F32A127DEF
E21800004EE1BBD0DF1EF30200BD3623
FC4F9D7FC013F7D8D8592BDB00914408
00022B0D29B4ED3C1B0BED11EE04C4F8
02EBEEF8A7A552F1DED8FA2DE3F90FC7
11DA0000F7E7AF4F19DA2FF6002D1122
2335D98E08062B8121AA4FA6D9A3F527
00CD346E12F70A107BBF3426C845EB70
FCB471FAB0372B1E902430F606010F1A
00000000000000000000000000000000
00000000000000000000000000000000
00000000000000000000000000000000
00000000000000000000000000000000
0A7900002C4E9B5A16EAD1D000F51704
FA302EF3F0F6CFDCD821E9AA7F0B1812
00614939DCDFFF9C0DC9FC115011D246
D3B5F0DA11D0F30E961C1E4828E41BD9
C9BB00000EC03A48DEF4E8FB0081D612
E2E3C693EBD11F1E2B21040D0DE5C7EB
0008422C1837071B4D09FECC1EC8F24F
E3D21740F5B650DB1303F1F8FA13E84D
00000000000000000000000000000000
00000000000000000000000000000000
00000000000000000000000000000000
00000000000000000000000000000000
00000000000000000000000000000000
00000000000000000000000000000000
00000000000000000000000000000000
00000000000000000000000000000000
0D150000D725EEF523D9FCDC002EFE2D
05EB44F1D6F7E77F1E34E59C0530F506
0025D2B5F8EDF5DAF5FA2BEEF81B0706
D636090ED9159ECF3AE60E0A3BF51D18
4D300000DBCF28EB05E7D80700B34228
123DE8FAF7FCE0F0FE070E1BD3C2BB0F
00EB321703EC11B7F2F319F181F2D1BD
EC17F4E504DD0612CD2422221E790DD5
300C0000F0F818F1F247E61700184101
EA19C2E4101FBE7F0C26EDF9FB2FD226
0023321D0218E0F5EBD905C1B431E71F
09D84414CA10ED20ECF81B2EEE36D722
0FDD00006C1C0D6EFFF0F1D100BC0F19
53F2FAD9EAF37BEFC1E3FE0309DA3BF8
00B9E5070B88F75019F2E90D7FD9E618
0EDFBF20A443EDDE9407252007CB0AE3
00000000000000000000000000000000
00000000000000000000000000000000
00000000000000000000000000000000
00000000000000000000000000000000
00000000000000000000000000000000
00000000000000000000000000000000
00000000000000000000000000000000
00000000000000000000000000000000
25BC0000040CA305FCEE2DF400FBFDDF
0CF2B85733EF18BFBFE922690B8E07AE
0031E24ADCAD0BF9088EF7DE701FF74F
1DFB1511813921D2A7FEF10226BDFE24
D1BA0000CFB481D9102AE81500DE2728
FDF1DE16203CC6EB252138A5CECE0F1C
003734F5F737EADF561B00E31B0ED3EF
FEAF69E82D321324BFEFFDCBEF01D5BB
BBF20000E9F3EFA6F8C21A0200BEED09
0118E126D37F1E52EBC4F229FDD2FA98
003503C71BCD35E5A9E40EE92358DE4C
29CA0A30E1C8B65A5A0E0AD4EDEFE712
13010000F3DCD80DEFF91AFF00371ED4
2BEE0DFD220D2EDBF0C7084CF2F3FBF0
00D81DFB1FF906EBEE09E7FEAD0F0B1A
FEFEFAE6C4D97F2EDD3223E4DA1A0A44
F87F0000BC1FCDDF00EB3BF400FA0FDB
1007DEDEC22E05C1D61D07B6E2F31626
0012C50F28C6FB00CB3AED56CBF3DDB9
1D023E2A1DF9021C12FB0739F521B6F3
00000000000000000000000000000000
00000000000000000000000000000000
00000000000000000000000000000000
00000000000000000000000000000000
D40F00000CD6D0B6C61116DA00F316B8
FBBADD3123F027432EC1112681161EE7
000CA726E8E6E6D53D4DE814FE443CDC
F6FF4021FC962AEFD40A024DBCE6EA26
152200002540C9241BD5EBE300FD0EEF
EE1110C72F09BCAE0EF802F5D1B92C12
00F70057E7B40BF300EA0D247B6816BE
1E9804293206BA027FEBE2E5EC1B54E5
BF13000008EFDD743AFE07CC00002B77
DD29818ED054E039F6F2C7F4BF07E71E
00B0392F32D0EDB03EFB0A94CC01C9EE
32D61EDADB1154F8AF08F1F5DA1858BD
F3BD0000F90E2912F014DEE100FA0425
E51AFE8106F8153324050707FE02016B
00DBFA0D02F708EF21FDF7F7EF13AFEA
E6F1EF08D3F9D8192F09DD0336471C2B
2A470000BBB45CCD13E4200700E808D2
060A49DF6505D2CBCEB527628C8110E7
00A4FE115E0110C813D2F6FAAA2E37B0
DE101F06F1CC2014F53B31F205EB2A28
3D3F00000602FFEBF7DBF31C00E0C7FC
2FF10CFB041202B81E332640DF7FEB0C
00DB2A1E6821F4F7FD59061ACFF218D0
081002EF4AE4459CE517279FFBF451D8
FC0D0000E2082CF31AF300FF00B1ECEC
635BEB040DFD540310C5400DC7E8F2C4
0004F0177F1202FB71EC2D314AE4E70F
C60444D1F2E4E049952325E600FCEDF3
24BF0000E3E3CD1FFAF30C2B00E709F5
051E10DD7F09F6E22AEAC4F41DEEDB09
00D114EBE62AFBF4EDECCC1513E3F50C
062DA6C51318FCE12006BCFD052F7809
305D0000E981D8C6F5D12F6C0032E72E
F1CA2D32E8D3F1A310351D1D222046BB
0047242BDBD633B848F5F31203E1E625
21BEF2BDDD29EEF5E21430F330D3279C
F54D000018E939C923F31B0000D4D434
097F0B08BA11CB2EDEEAC804D9D3D2FE
00A51DEFF9E50DC43144250BE6F316CB
EB76053E2CF0F8ECEF28EC261BC47FEE
0DF5000010EFAA2CE1D1BDEF00CC21BF
2D2A949F6E8F174DC52DEAAA3CEA7939
00B3182D283705181856F6EA8D55106C
E993C5105D81AFF423FAED580C330734
D30D000001A50C291AE64DDD00E51CF1
03D149E42FE0C94B5FE8E456BE170DB6
00E8C900CE0A1AE7BB23FCD511BA2C11
12CBF8DF5DD8EB317F2BE2A4FB21D9E5
009C0000EDF42CEFE3E4111A001E0AF0
EC17E4A9DCCF0C1CF8051F53BEEBF322
00C1D01FBD2CCCBBEEDECFE2ADFF03CC
FF42C172D903E3096CF4DCE2E94FD87F
3FB90000E4B4BE02FB1C2DD100580504
7D04C22020E0BFDBEBE54F7FE1CA0413
008C2BD547CF0010D4C0F9E2AC08374D
CE60CE329005380BA60DE79D2A01354C
25060000DA121CDB02E3354200F4E7B7
F6E3F7C71BEC2CF9D043F121CB08DCB0
0004811A2CFA02C32AEDF3216FFCFB0E
F9D6070A106619CCA6FB2011FC23000C
F7060000E5C52DD4E5E7EDD200C7161A
CB27FFC91A0C250DE7DC03E3C1BADAE4
00C3A5443313E7064A50401A99092CFC
07B8320A0A81000FD8EA1007013062F5
F0BD0000CAF6A202F30EE94000F1E8D6
F9D1D5C00F2DB8177F24D73BD5421B41
00F60B09EA43F9954D201D45D36D25A7
C0DAD9F83AE8CB250F2C43EFF72ECB39
