7F81AFF7F07F81641D0FD10E07599489
6CF0D67972D80014C7C719F3030DFFEC
FD7FFE9E81E2ED5902FCC398F5C1EAA1
2AA07FC106BC07C4097FB5C2CDEF7FEC
CB8131D9273081E481120817DF33AFD1
16039B12EAC1A92E81FFAA7FE3A1C751
810F8FE526B07FDADAFD45E50B8193EB
BABC81EEE4119C3B1EDA8981F0C97F8B
74B9D9C530F9C26B35DC9C11A81C7FE6
D00FCF6D0622DD00C9F64FFCF40AD5AE
FB001981A6FCA106415AD9033F81D120
D7E61AC08197EFE6EEDA1029D381AAD4
05C5D0E0B78155019D4EDFF30E8C217F
9BFCB50626E23901252B81147FECCFB3
3DF3E73949B763AD96C6F3188EFE0BD1
0BD7ECF19B3E8D187F7FF2A481435881
7ECE814330098FC916CC937FA8B54181
32E6E8D7716DF612057F48EF813F1127
EDEBC7F2BE0DC1BDC2068EEEEDB17236
C407C7B508B007BB54B0BBDFD1C217F2
C20FCD61EB45E905B9402701F664CF21
DBF4CA0754B133A8D803075EEA2F01C5
92064BDDFC853CEF8181C8B2260827CD
EF18CCF3D2B3E781315BA26CF47F42B1
CF2D0DBC14FD2556AD7F7F09C647BECD
AC0715E937F2141EF7FEF50CB926F72A
25E8A08B697FB643087FD584CBC4DD81
7F0000A80381E7B7D23CA99FF208D3B4
CCCB7FC1475925E326D8FAF3F442A3CF
E6DB81D00281E5199D041820407FB67F
EEE405D9FC35600847F4B7B67FA5C415
F3814B7F3943AF3B1C0B81C973DDD434
E7BC62D8DEF2EC1EEDFA0CEA81FB4403
81F87FA1CBEBE5F4A0F47FEFCDCD9ABF
F6F381F8C32E787F4D788132F2CCCFD5
026DFBD2C5FCBED881D7CECEC91C1509
DC190FB2B7C34899560CF69107CA026C
810DA5DE7FA45AF2BEEF1D1E4FFA7FDA
79FE197F817FC19A99CA5F7F13F3B35C
2B5D54060045E6CDC1E8840A3AE289DD
08AA0531030896B81A9A174FE9D072F8
D9FF370CD122810E00010DE59241E1CB
09F51A2701E58C1FC726AFECE9ED2B52
95192E8112D5D7BF8CD6A793990D1F7F
B1F6F9ED7E01C7DA17052909AAAC810C
1701DEFF20ED0E09017FFFF5BBF8BBEB
B9F917F447E4BB2293ADB5E5DBDAB1D3
C33BF65B7FC67FE7ECEFC35AB3FCEDDB
BF289BB37F0A14BDAB2F2ADE90FDE8A9
6981FF817FCF097FEE1F29C51D6B112A
7F500DBC733EA2EFCB79C78181440044
6635EA2B840C818133FA3C6781B8BCD1
81F01C62813929E42CDAAF031081AFC9
1C818E1EBFC1E981E51A54CCAA510C54
E0E57BB816DC47E7F0DADCD0B60AFE7F
81C4E221F08135E76D0CDD85351D6A6E
90E1BBEADB0B248199BC76EBC081FE84
E4F855CC9F81A31D81CE7681ECF3B67F
FD0187EC5F2F7F136B6C0DC8D150810B
A2FC0764C56900E24DFF9A7FB4612EF5
BDF01B7FDA90C99E187F8181C771CF16
0EE5B757ABCF7FCFBB0535E69BD1DAD1
2B81FAEFCB22E581E3947BF735C68165
E81CF5EEC1DBEBDF1ACF2ED2F5B64C52
DEEECD7FCDF3CABB81D2160ECC0646C4
4F05E47EEEB5AA4D0ACF4981F37F81D6
179A07EF0ED5F1FA7F0AF803ADE9C4FF
C47F2A26D02508D028FD815D8636D950
B8DC0FD9629FE58128410AF181FE0CFC
49F1C57FC0E8175CDF264F0EDA9BC8EF
C1F3813730CA14BEFD8781229BFCA2E7
FE19E30C23E7C9223A07F9CFD6986D27
