00000000000000000000000000000000
00000000000000000000000000000000
00000000000000000000000000000000
00000000000000000000000000000000
00000000000000000000000000000000
00000000000000000000000000000000
00000000000000000000000000000000
00000000000000000000000000000000
1F2724B6F496EA1A380B97CAE63FF4FC
B6003128564200FA00DBDB00001C00EC
2EFB000023F6125DEFC000060B1FE9D8
E0B50C1500C5003308080040DD91ED46
3700AEDE3A045400511839000002FF13
F100DC131E09181B0037BBEC5D0EFBEE
08001406D439090000CA0217D70000C5
FD05CE5ECB7F09BFFD1F07FB343EBE11
37282FCF1A00EF3B16063CA91E212CFD
21001A2ED947003100D6EC00000F00EF
CB240000CD30EFF300CE1BFCD82D17FF
0107142600340019C43100320010FE1D
0500CD0723CAD800D30CFC0000FD001B
FB002C42E0628112001D4524F431E899
E100F7ABF81AE00000C7F4D316000044
01BE35CAEFD208C11509EE12021BD617
C2DF09ED10C3E4FE44EB1300251852D6
140085DAFD01003400FAEB0000BA0012
C2BB00002E083B120DEEE804EFD1C92A
28E439DE00EB00DFF2EA00320BB419F6
EE002EF181C8190076F0C30000FA0022
E600F11EE96E36F6004645FCE5D3F8FA
FA0007FEFFE14C000002C1C10A0000B5
FEB4DD5F5409090EF7EC73D31A180618
28D8062F11C40F1E02A912082D46F91C
F0002510F20800ED00EBD70000E700E2
9DF80000EAE7FA0F2D24180602100108
32E630FB00EE0003F5D200EFF41AF3D7
F200B611F3E0E8001DCC1F0000210019
DC0021C1005233F4009A091A1EEDFCCB
2000C2E401042D0000FEECA6D3000051
FFE07F52220D0A11F042E80B3ADADE40
00000000000000000000000000000000
00000000000000000000000000000000
00000000000000000000000000000000
00000000000000000000000000000000
00000000000000000000000000000000
00000000000000000000000000000000
00000000000000000000000000000000
00000000000000000000000000000000
1F29FB1C81F92C150E0A74D62BF1950B
C000F1AE4B0800F200FE2F0000120023
AF21000036C915D4D28614FBFBEC2208
1CA4FFF100E9008945E300B99F0B20B7
D500E5A539F14C005BC8040000ED004A
E0008E9152C8B67F0017D8CAC3503BA7
2300624F3EF6D2000001084418000043
034E1B5A0FC3073E32DDECE927F6EEF0
2A09FCEA34D7F92B0F2424ED18F7D628
F3000DEF1CDC004100FCE30000FC002B
3BD7000037300036F30A33FE042801D3
1004E93E001C005C1B0700052D67EB33
EC00DD22DD16B000DFE63400003801A0
220043E0DB180F1000211ADAEDDFD91C
DA002C05FBD7FE000044170B260000D8
020BEFC80C1A058126E72E01DC15E61D
21461883EBF3DC11F51E1ACB502B02E4
F900B3FE121500D100FE0400003D0006
BD29000019C6FEE4F53A18030FF9E319
EC98A4F900E500CCFD0F0028962D17E7
1B00AD040FCDDD00DFBD060000350133
FD00DDE8F47FE9E500E4DD1F0FD9CFFE
E300F4F8FDE64A0000B52AFA28000004
FEC9C6094817FA030ACAFAF8C4143FBD
FA1B21E1E4EAFAEC3DFCE23D01E5FF5F
BC00EA0112B000E3001AB40000220031
81EC00000BE9FEDBDAF8F300E0C9D632
DDF7F101000100F7451200104FF1FAAD
2200EBF153E21000EEF40B0000F2FF02
430007F833D461F100B7BFE630E3FB0B
F5002EF90D00C9000030EB0AEE0000F9
FD2611E53F19F9D7540A1107AECAFD23
00000000000000000000000000000000
00000000000000000000000000000000
00000000000000000000000000000000
00000000000000000000000000000000
00000000000000000000000000000000
00000000000000000000000000000000
00000000000000000000000000000000
00000000000000000000000000000000
4F6749CEEBDDB812E63030C24032A2FE
CC00F5ED053700C6001B130000F70034
C2C7000020BE2CB3A8A7DAFEF9E2260B
E974F4EB00AF00D7022F001EC8442AE9
2F0081FB392B320048CE5300001BFF0E
F200A6BC4109EDDF00C8D401EE1D1742
1D00FA4C1B1C160000E3210C3300000F
00781BF6D3DCFD1FEB491F36DEC715E7
00000000000000000000000000000000
00000000000000000000000000000000
00000000000000000000000000000000
00000000000000000000000000000000
00000000000000000000000000000000
00000000000000000000000000000000
00000000000000000000000000000000
00000000000000000000000000000000
00000000000000000000000000000000
00000000000000000000000000000000
00000000000000000000000000000000
00000000000000000000000000000000
00000000000000000000000000000000
00000000000000000000000000000000
00000000000000000000000000000000
00000000000000000000000000000000
00000000000000000000000000000000
00000000000000000000000000000000
00000000000000000000000000000000
00000000000000000000000000000000
00000000000000000000000000000000
00000000000000000000000000000000
00000000000000000000000000000000
00000000000000000000000000000000
DF1D2114091E21F1F3F019C607F32D26
E300C22ED9E300F600F4E60000CE0012
1EF60000130400461A0202F90332E892
F82A322D001400F8113500312407F3C2
FD007F0B21FF38003609C80000E00014
4300100A141DC22800E5E00D003A16F4
0E0041F71F1C12000009F8EDEE0000E1
FEB21BF205FD07F0F3D714D820EE0A04
FA27FFDBFA4A100A220ED700F92FD3EA
3F002AEB17F900FE00EC4E0000490001
38050000FAECC9E1B930F402053F120B
EBE9D60700F4001333CA000E7FEB0701
2C00F9E6F7F93B004513F3000022013F
D800B92835FA040F000E0FEDD92BFA14
F200E60C27E2430000D810F3DC0000DE
020B010408F60831FC05D523F811FFFC
00000000000000000000000000000000
00000000000000000000000000000000
00000000000000000000000000000000
00000000000000000000000000000000
00000000000000000000000000000000
00000000000000000000000000000000
00000000000000000000000000000000
00000000000000000000000000000000
00000000000000000000000000000000
00000000000000000000000000000000
00000000000000000000000000000000
00000000000000000000000000000000
00000000000000000000000000000000
00000000000000000000000000000000
00000000000000000000000000000000
00000000000000000000000000000000
297F550F02D3FFFDFFD43421FEE2E52D
E100016AEB09001700030C0000EF000A
DDDD0000E81528D1D1CBC3FC1209F344
1518EC0F001B00F9E2C700FDBD25FCBB
3D00E2E03339320006F2BE0000E3012D
1700FF2D27C8DEF000DFAC433B3818D5
2A002949291B2500003A10FD0D0000CD
FEBA7D14EBE211160415F1013FEB115A
00000000000000000000000000000000
00000000000000000000000000000000
00000000000000000000000000000000
00000000000000000000000000000000
00000000000000000000000000000000
00000000000000000000000000000000
00000000000000000000000000000000
00000000000000000000000000000000
48E63706CE39D5EF101EAF2BD30E1C27
D7000E150807009400E41B0000A700CC
1FFD0000DEF802C8E5A8F700379D08F5
E8EE09D80039003EE92600122BC8FDFA
27002A0C09F409001DBC040000D1FFF5
D3007FC1F6D9F0DA00E5D9F5061D07CC
F400B0DFD7FAA5000077DBFDF30000C5
FECC05F1F42301A91CD1D100FCC2A7FC
00000000000000000000000000000000
00000000000000000000000000000000
00000000000000000000000000000000
00000000000000000000000000000000
00000000000000000000000000000000
00000000000000000000000000000000
00000000000000000000000000000000
00000000000000000000000000000000
00000000000000000000000000000000
00000000000000000000000000000000
00000000000000000000000000000000
00000000000000000000000000000000
00000000000000000000000000000000
00000000000000000000000000000000
00000000000000000000000000000000
00000000000000000000000000000000
00000000000000000000000000000000
00000000000000000000000000000000
00000000000000000000000000000000
00000000000000000000000000000000
00000000000000000000000000000000
00000000000000000000000000000000
00000000000000000000000000000000
00000000000000000000000000000000
D12A1FB4D0FCFFEC24362746AEFE195B
9F0022EFF80F008700D9D600002E0028
07590000E5D219A9FA15F5FEDAC4DB11
D4E9D6F9000400BFF12700F086DED4FA
9A0012B71BD9BB00F809530000DF00F0
7F00E9F4E92A0F14003E09D5F103BE58
EF00FC110603B10000C542FA14000005
00ABC401DADCFFDB373A2CEBE2FCFB3E
00000000000000000000000000000000
00000000000000000000000000000000
00000000000000000000000000000000
00000000000000000000000000000000
00000000000000000000000000000000
00000000000000000000000000000000
00000000000000000000000000000000
00000000000000000000000000000000
00000000000000000000000000000000
00000000000000000000000000000000
00000000000000000000000000000000
00000000000000000000000000000000
00000000000000000000000000000000
00000000000000000000000000000000
00000000000000000000000000000000
00000000000000000000000000000000
00000000000000000000000000000000
00000000000000000000000000000000
00000000000000000000000000000000
00000000000000000000000000000000
00000000000000000000000000000000
00000000000000000000000000000000
00000000000000000000000000000000
00000000000000000000000000000000
00000000000000000000000000000000
00000000000000000000000000000000
00000000000000000000000000000000
00000000000000000000000000000000
00000000000000000000000000000000
00000000000000000000000000000000
00000000000000000000000000000000
00000000000000000000000000000000
163214E529E6F1F710FCF4D83920F4CB
CD0003C303F9000600E0100000FE00F8
CBE90000032108CF2C132EFF2BEFDEFF
D508DCC400EB00181DFF00240EC6200F
2400F9D8D8140500051309000024FF13
FA000811020802D50061FE18DD21E1FA
1500AEF8F5F5FC000081FFDDF7000006
FDEAFEE00CEBFD14EBF13407BFE4C8F7
10DC40EDFF042F42CDE50C21FCF5FCF8
2900BBED1E00001500130A0000DB00F6
010200007FF11D00173EDF01403FF706
2EBB293B001C005FFFF1000F21FE1421
28004BDC08513E00DCFD190000F300FD
2500BF0A04CEDB1E0004E8390C0D0815
F00004FC31F94E0000E4E843AC00005D
00484628433FFFDB0AF2DC48F8F31E0A
3DB3322F0655F2F873F11DFAD8EED67F
090063E6C51B008F00E5DD0000F20060
D5EE0000EABEFEE29EF10400351240FD
D21CC544001D00051E0A00D3AC582DD6
A000CDFA23274D00109F680000F10173
EB00EF904EC0BB21002BD80C37DA3E97
33002C4622694F0000481C5D1F0000F0
042C2A03D5FE031D2A90BF2717A5AB38
101335D5EC0A31F909D9E7C137EAFE17
2F00E526060B002300DC810000F4000A
151000001CFC19F862150302DE14C7C9
D2FDD1D400B3001C1E1A00171017E424
15002923C8DA0200CE0AF80000DDFFFE
F100CEC5E7D3E31C0000ADE1D7CB33F8
55001F5C3B08DB0000CB0A0FDF00003E
FCD6F4042E18FF4DD0CD01F13123F9FC
6CE24DD61B0BD94A1636E6FFDC030687
CF0023F5C2B2001D0060600000130002
C3120000C9CB43EFF3D1040B0E0CEF1E
CE1924E6002B00DEF10B0003C91DED0A
4500E1F305055A00F5D9DD0000DF0043
2C0019622CC508010076D27FE41E0A47
2300D525FF1F600000BC00D41300000C
FEF855E3C546F2F3BB4CF00CBDB4F2DE
133116D20EC861C12EEEF4B52C203616
47007CFBEE27004200A7D90000F300BE
F12E0000D74A0A11EBD92D011C4CEA54
C26AE936006C00442A0100FDD6EBE5AF
DE001B1DD321540010DEEC0000FE02A5
0700F026B43BC2C600437FDE50D2F3DA
0400E516BCC0F5000001100FCC000010
02D763AF17E504E354E8072AE94FD946
00000000000000000000000000000000
00000000000000000000000000000000
00000000000000000000000000000000
00000000000000000000000000000000
00000000000000000000000000000000
00000000000000000000000000000000
00000000000000000000000000000000
00000000000000000000000000000000
1537070C42DB253EF51347FBF77F09E8
1600E324361700250062420000F900E7
ED180000221133C8FCC5EBFC12F464DA
1E04FF4700D700E7FDFB0017082EF142
230023FFE7F3080078E7280000F2FF5E
06002DD2413CF85500D8DF3AD1FC06CC
0600F7FED4D9FC000046F1360C0000DD
0543F75F38F9F8122F151FD41D3AFF11
DCE7F247E001C0327F171259FF06DF7B
920025F13D30002A005A51000018000A
A2BA0000F6130AD3DABF1303E4DA4C02
E8E219C100F900B740E900F71FC524DC
1300E39D1145E6003FAB350000120026
34009E782BCA292700BE0E1E6AFAFFFB
0B0006B31E09EE000004F0D74A0000F2
FFEBF31CD70201DC344AB8E5E7EE34D9
22FA04D723254CEBE066FF7FDCF8E9E7
D600D4EF23FA00A80025C50000E800B5
1BFC00000B09E38700080708E73820B3
21042BD300EA0000A1EF00E926B029EA
D2002D3CF113F6000BEBF700000AFDF3
FF0013DAD40E1BDA002547FE03330AD3
EE00D00BBFE5EA000020C6B1E40000F8
F3FD181AD300F91B102B2230CFEA18FA
00000000000000000000000000000000
00000000000000000000000000000000
00000000000000000000000000000000
00000000000000000000000000000000
00000000000000000000000000000000
00000000000000000000000000000000
00000000000000000000000000000000
00000000000000000000000000000000
F53B0DA6F0E3EC37C6F629BE1AFEAC28
2600C1A21DFD00AC000C680000DE00FB
DFE90000D7ECF636190044001CD3F3ED
2F16F6C300100032B34B00B2811E031B
9E000826D6E70800D90B97000011002B
F500F2474FD010EA00ADFD32E1441BDE
10001E9A593EAB0000F8313B340000D3
FCFCF4B6173201E7DD3EE6ABF0C03DE2
00000000000000000000000000000000
00000000000000000000000000000000
00000000000000000000000000000000
00000000000000000000000000000000
00000000000000000000000000000000
00000000000000000000000000000000
00000000000000000000000000000000
00000000000000000000000000000000
55DF0AEE09DB042CCB1FD1D9D41FF7E7
B500E7D6F0E100F6001F0800002D001D
29E200003DE054D4DDCDD3042C01EFB4
D0CEE9FE00CB00F318270056F70602DD
6B00B4D0E106460069F8F70000ED0004
C20040DD42FBDDEF008127B3CFF6249D
1C00140DFF0CD4000012F133220000DF
0014EF7033E6FE22DE2C13FF3DFB40E2
00000000000000000000000000000000
00000000000000000000000000000000
00000000000000000000000000000000
00000000000000000000000000000000
00000000000000000000000000000000
00000000000000000000000000000000
00000000000000000000000000000000
00000000000000000000000000000000
2C16DFCBEB070B3B0A2027F50AE5B40C
E400C8063EEF00A7003B120000350042
D3E00000DCD4E1E3E6AD1004EE0D2CB8
D5DC0AD9000B00B1E2C100F03C13C6D2
0E00B53608F70100B6FE4A0000EAFF7F
1A00C9FDE3FC0D33004BD303BCF6350A
FB00FE182A1F19000014F6DBF4000005
041AFE00F004F9F42632F1F4E224EE01
0D13F91C210EE3FFFA1333E7F1CBFF15
0F0008FE2D0D00FF00FD180000E600EA
19E8000014280D1A3709FDFB23D4EF3B
1DFB070B00E0000BC0EA00E9D801F10B
0500E717DB06E100FEDA0D000012FFE0
F4002FE036E61702007F01DEFC01F913
EA001F25FC1CD800001F1DE90300000A
FF09F7EF1E27FF1AF81014F90016EEEF
00000000000000000000000000000000
00000000000000000000000000000000
00000000000000000000000000000000
00000000000000000000000000000000
00000000000000000000000000000000
00000000000000000000000000000000
00000000000000000000000000000000
00000000000000000000000000000000
2B7FFB23D630A2C1CBD2F312EE42FD0F
E400F7B71B05004800CC120000320026
4C63000044CD0BDE30EA060A92F11ADB
1FE3C7590014000940EE0043500ED3E3
E2002114F6390D0078EBE10000D000E4
0000003B2F0021AC00376702DCCB2123
2D00E20FAFBD3C00003BEF01E80000D2
FF3BFECF12E7F67E5C8BEAEC0E1ACFFA
00000000000000000000000000000000
00000000000000000000000000000000
00000000000000000000000000000000
00000000000000000000000000000000
00000000000000000000000000000000
00000000000000000000000000000000
00000000000000000000000000000000
00000000000000000000000000000000
010125682B8EE40DD021FB30483305D4
2E00A71E30F800D40086980000EF00D6
AD050000E2DD020D3C2D0EFAC036D905
F1DE25C100E7002ECAE200F884F4D602
06000A3EC4C4E600C7341D00002E01BA
C000191E2522391500370075CDE9130F
DF000CDE0FE1350000B43206DF00007F
021A13EC1ED502E2B0E0EF161425FE4D
00000000000000000000000000000000
00000000000000000000000000000000
00000000000000000000000000000000
00000000000000000000000000000000
00000000000000000000000000000000
00000000000000000000000000000000
00000000000000000000000000000000
00000000000000000000000000000000
00000000000000000000000000000000
00000000000000000000000000000000
00000000000000000000000000000000
00000000000000000000000000000000
00000000000000000000000000000000
00000000000000000000000000000000
00000000000000000000000000000000
00000000000000000000000000000000
E4F22A1C27C8F00CCD1DED3F81F203FA
04001F4123FE002B00042C00002500FC
E8E3000004161939ED0BE6F5171FF9FB
F633C608003000F9E0E500CA480B0212
F500340A123819000DD7120000E200F9
3000D21709ADACEA009BFEE7D6E6E707
F2000C4817DC6300000EBB08C20000CB
FD171FF1B5A8F7ECF4FBF710F4C52A0C
D41CD3C0143BDDEEFE1B7CC1E805D635
DF00FBE3F32400E2009DF800005500E1
7846000052B8D1C2CFC2FBF20A1FD5F3
53FABBED003900F6B14B00E530B0E900
290024ABC0BB08000CF5EC00001A0038
DF00007FCF59D0EA0017D3B211750AC3
E100161A24EBD5000025FDB6EF0000FA
042FE30CBF9EFD42538BDED2533B021C
00000000000000000000000000000000
00000000000000000000000000000000
00000000000000000000000000000000
00000000000000000000000000000000
00000000000000000000000000000000
00000000000000000000000000000000
00000000000000000000000000000000
00000000000000000000000000000000
00000000000000000000000000000000
00000000000000000000000000000000
00000000000000000000000000000000
00000000000000000000000000000000
00000000000000000000000000000000
00000000000000000000000000000000
00000000000000000000000000000000
00000000000000000000000000000000
00000000000000000000000000000000
00000000000000000000000000000000
00000000000000000000000000000000
00000000000000000000000000000000
00000000000000000000000000000000
00000000000000000000000000000000
00000000000000000000000000000000
00000000000000000000000000000000
C5D8EFB70EC7175B279FFAECDDD6F1F2
EC003DEDB35B004900F6640000EA00A7
FDE00000DD7F24C0130017FF11E32218
D3CF2E1800DE00D90BCD002036FC1C35
FA00A304F8450600F023E000000EFF14
1800FA6EF51FB10600CEC1103CFB052E
F20002FB43F2110000EACCF0E50000DB
050114BBD35002F823D0F9EC1A19EE09
00000000000000000000000000000000
00000000000000000000000000000000
00000000000000000000000000000000
00000000000000000000000000000000
00000000000000000000000000000000
00000000000000000000000000000000
00000000000000000000000000000000
00000000000000000000000000000000
D9572E222E236AE52EF221D9C8B512F3
FC007F42F4FD00F0001CE800002F002D
F8DC0000FDBF2703D6FFFC0561711500
3ECF0D440016001910DF00CF09E3CAB9
D8001E231448FF00F20B0C00001001EC
FB000FC6D7EBDDC20036BEDE59652BFD
100009331E602100000FF9EFEF000015
02F12050EBE805F42401FBF726F0003E
3FBB00FF02D8033546EC241306E4E666
0C003B22C309003800FC990000BF00ED
AAEB00000630ECCAA3FAF0FD74D703C7
98F455CA00FA00102DC100051CD8F60D
7600F7B1233B0500D9DB3E0000E401AE
F7000A1BE6F8CC0B0010BDF63DF61AF5
EE00FC0F38EE350000DDFD23F10000D4
02D7EAFEE67FFF293F0AD8142CE00910
00000000000000000000000000000000
00000000000000000000000000000000
00000000000000000000000000000000
00000000000000000000000000000000
00000000000000000000000000000000
00000000000000000000000000000000
00000000000000000000000000000000
00000000000000000000000000000000
00000000000000000000000000000000
00000000000000000000000000000000
00000000000000000000000000000000
00000000000000000000000000000000
00000000000000000000000000000000
00000000000000000000000000000000
00000000000000000000000000000000
00000000000000000000000000000000
D7F70557FB05CDC4EEA9175C278AEB11
E000D6052A100060004C580000A800D6
D21C000037111435C7E4F30BBE0E07E3
B77FE9FA003900194BB600E0E7F9F820
DC00361DEBEEF20008BF1E00001600FE
2E00F34C35A4DA1B00BD1BF45CBFFFF4
EB00D101272C270000C307FBD3000089
FE0E3DD3E61601EB1DE3C14402C74612
00000000000000000000000000000000
00000000000000000000000000000000
00000000000000000000000000000000
00000000000000000000000000000000
00000000000000000000000000000000
00000000000000000000000000000000
00000000000000000000000000000000
00000000000000000000000000000000
FE28FEF73DFB1C4E2CA923F12CE2FE0C
0500F0D704FE00FB001B5100006500C8
39040000F9E1D41849FB6704EC7010D2
F9BF9AFA0011001E1E9D00055837E196
0C00940009F8F200BC53F90000DEFF03
23000E740F7FE7A300F50926150CEB18
0E0058C2A9DFF90000E54CCF3400006A
0AC82CEF13C80ECDD658F25D1B51DC25
FBECEF48E8F1ED11CD18FD25D9FCEB13
DA003200692000E100F2EE0000E6007F
A9EE0000EBDD2E0CFD26FB00001A03EF
09E90CD7000300E20CF000D8E202F153
E100FB01D11F11000DC80D00001000F8
FC00A7E1D8CFEF080001E80EE81D27CA
180007FC0FED070000DAFAD9FE00001D
00E92FE8FF21FD01EBECDFE9571871F0
BB0CF33EFF1517E72631F916204C33ED
2200252BE4D400CF004AC100001D0008
34F600002539DF1B4DFEEBFEF4DB3112
4105422700360010CA1C0014091229F0
EC00AECB34287F00CDFE2400003BFEE8
E40030FE2D1428C500E211FB03F51213
4100FA22F7F4340000DADDF8F6000030
FE1909F72FF9022B254D0E320B14D705
00000000000000000000000000000000
00000000000000000000000000000000
00000000000000000000000000000000
00000000000000000000000000000000
00000000000000000000000000000000
00000000000000000000000000000000
00000000000000000000000000000000
00000000000000000000000000000000
1310FA08F6FA08BAE70C32D99BF10914
D6003441152700E40004FB0000C400FB
2353000041ED3EFBDA12CC00F41AF533
23D9B20500DB00DE30A500F7D5F4F2C7
F10023E530273F003BFF960000FD00C9
210003F6D4C72800003EBE29413115F9
2200FD15092023000006DDE6C50000CC
F525085512E2FC121A1FF1F27F3DD52F
00000000000000000000000000000000
00000000000000000000000000000000
00000000000000000000000000000000
00000000000000000000000000000000
00000000000000000000000000000000
00000000000000000000000000000000
00000000000000000000000000000000
00000000000000000000000000000000
00000000000000000000000000000000
00000000000000000000000000000000
00000000000000000000000000000000
00000000000000000000000000000000
00000000000000000000000000000000
00000000000000000000000000000000
00000000000000000000000000000000
00000000000000000000000000000000
00000000000000000000000000000000
00000000000000000000000000000000
00000000000000000000000000000000
00000000000000000000000000000000
00000000000000000000000000000000
00000000000000000000000000000000
00000000000000000000000000000000
00000000000000000000000000000000
00000000000000000000000000000000
00000000000000000000000000000000
00000000000000000000000000000000
00000000000000000000000000000000
00000000000000000000000000000000
00000000000000000000000000000000
00000000000000000000000000000000
00000000000000000000000000000000
00000000000000000000000000000000
00000000000000000000000000000000
00000000000000000000000000000000
00000000000000000000000000000000
00000000000000000000000000000000
00000000000000000000000000000000
00000000000000000000000000000000
00000000000000000000000000000000
00000000000000000000000000000000
00000000000000000000000000000000
00000000000000000000000000000000
00000000000000000000000000000000
00000000000000000000000000000000
00000000000000000000000000000000
00000000000000000000000000000000
00000000000000000000000000000000
00000000000000000000000000000000
00000000000000000000000000000000
00000000000000000000000000000000
00000000000000000000000000000000
00000000000000000000000000000000
00000000000000000000000000000000
00000000000000000000000000000000
00000000000000000000000000000000
0C04112ED624DDC49B2F9AD981EE3AB2
DE00653222AE00C50006FF0000B60049
E36B000010A441E83FF38603CE2B3FD0
EBC6AFD300EF00F446A10014EEDE2F16
060054F2124B16005702BA0000EB0026
240021B99B03C0E800351E09330BEB2D
FE00D41705F2050000FAF600250000CE
FEEC1A752EF2F74423CD27083C096527
00000000000000000000000000000000
00000000000000000000000000000000
00000000000000000000000000000000
00000000000000000000000000000000
00000000000000000000000000000000
00000000000000000000000000000000
00000000000000000000000000000000
00000000000000000000000000000000
C8DCF2B307E1CB5864FC1D38CF182E3F
DB00A0A55B4E00DC009BDB00004500D7
F96E0000DF15EB37DB847100CB14F110
1106FDA700BF00FCF79F00D7810B3EF5
D9009321190C1100080A000000120051
B900CB1502F40A3A00B109511D7442BD
5E0010BAE2FAAA00001BB6D5B500000D
05EE3EE5A728F11F73A790FB2C371CD4
00000000000000000000000000000000
00000000000000000000000000000000
00000000000000000000000000000000
00000000000000000000000000000000
00000000000000000000000000000000
00000000000000000000000000000000
00000000000000000000000000000000
00000000000000000000000000000000
DBBF16DEFADE2EFAEBFDF2EF0008E2C6
0700E72EECDF00E2000B080000E300CB
FF0300003B41D8F45DC0440C55EF28F6
17E8C316002700ECEC1D001342EDF419
10001DEBD1D4DB00E921BF0000ED003F
380019063C18C6CE00201DF0C9FE2730
2200E5EE3B07F200002308811C0000E1
0126F816F654FFF42E1DF8FCAFBF1FE9
00000000000000000000000000000000
00000000000000000000000000000000
00000000000000000000000000000000
00000000000000000000000000000000
00000000000000000000000000000000
00000000000000000000000000000000
00000000000000000000000000000000
00000000000000000000000000000000
00000000000000000000000000000000
00000000000000000000000000000000
00000000000000000000000000000000
00000000000000000000000000000000
00000000000000000000000000000000
00000000000000000000000000000000
00000000000000000000000000000000
00000000000000000000000000000000
00000000000000000000000000000000
00000000000000000000000000000000
00000000000000000000000000000000
00000000000000000000000000000000
00000000000000000000000000000000
00000000000000000000000000000000
00000000000000000000000000000000
00000000000000000000000000000000
00000000000000000000000000000000
00000000000000000000000000000000
00000000000000000000000000000000
00000000000000000000000000000000
00000000000000000000000000000000
00000000000000000000000000000000
00000000000000000000000000000000
00000000000000000000000000000000
00000000000000000000000000000000
00000000000000000000000000000000
00000000000000000000000000000000
00000000000000000000000000000000
00000000000000000000000000000000
00000000000000000000000000000000
00000000000000000000000000000000
00000000000000000000000000000000
00000000000000000000000000000000
00000000000000000000000000000000
00000000000000000000000000000000
00000000000000000000000000000000
00000000000000000000000000000000
00000000000000000000000000000000
00000000000000000000000000000000
00000000000000000000000000000000
00000000000000000000000000000000
00000000000000000000000000000000
00000000000000000000000000000000
00000000000000000000000000000000
00000000000000000000000000000000
00000000000000000000000000000000
00000000000000000000000000000000
00000000000000000000000000000000
00000000000000000000000000000000
00000000000000000000000000000000
00000000000000000000000000000000
00000000000000000000000000000000
00000000000000000000000000000000
00000000000000000000000000000000
00000000000000000000000000000000
00000000000000000000000000000000
00000000000000000000000000000000
00000000000000000000000000000000
00000000000000000000000000000000
00000000000000000000000000000000
00000000000000000000000000000000
00000000000000000000000000000000
00000000000000000000000000000000
00000000000000000000000000000000
3DFF1FEBD416D9E92315CAF100157FD5
1900ED08BF1500B100511F00002000DA
57F90000EE17F420E5F5E50604C9010C
421D521C0026005CF00E00167AE4F5DC
F7001C70EA091700F8F64F0000550194
97000CC4FBF516EB00122A94F217094A
FA00DFECFE252B000003DC08F30000BC
02EAD002D111FDEE0502DB20E1E9C0CA
5C40269C03BC081F27FA04F8C811DD2C
E00059FA0D69007A00F1220000140075
B8C30000F1D22CF0D9532DEA1FEA48E0
F110C50100EB007B400000AF3D17D1AB
1F0009F0DAFE4600F2B9E2000062020C
0700F12C5418E1CE0001D49C7F04E90A
5600E4182D151E000001ECF3270000CE
002C11C40A0404D71DB75BFEDB003E41
DC0948E41E48E7D0CA2C43D1173BEC03
0600D1052E2F00E500136300001C0017
1ACF0000380D0FEFE5FD5B08FB2127CE
7F99ED1C002D004411FF00EC4C023204
D500430C05C8060016341E0000010084
CC00E1D4448CCEF100140EF7C8553C06
FB002BF638E8560000CED64B1B0000ED
FE1BF4021C250056C15CFC0E0203FEFF
00000000000000000000000000000000
00000000000000000000000000000000
00000000000000000000000000000000
00000000000000000000000000000000
00000000000000000000000000000000
00000000000000000000000000000000
00000000000000000000000000000000
00000000000000000000000000000000
1F0D13C69AD57E36341430DBF218FD39
170018F5361B001D00F3DF0000E10017
9DF5000027CCEEFFA02C0CFB2781CF42
24EEC8BF00BE00D7FC350005C1F4DE1D
EE00D6D7FD13ED0010CC150000F000F4
42000306E4D3C51700FCE0F11420CD2F
FC0014FB2521FE0000BA0B26010000DB
01D4D8FF0F3102E2C9FDFCCE2B6AF0ED
0FDC1907AB28F3FDEBE027110311EF25
1D007F24C00F002C00002D0000F800EE
EDDA0000BFFD32E0F731070A1FF61DE6
31F6EE01003500FAD7D100D2EFFEE6EC
9800E816331CD300EE3CF90000F000FE
08002CC105D1222800370F3A1FFC0DE0
17001F2FFAEBF70000F507EDB90000F4
FF13DCF61AFFFE22A008D707E0DC0425
00000000000000000000000000000000
00000000000000000000000000000000
00000000000000000000000000000000
00000000000000000000000000000000
00000000000000000000000000000000
00000000000000000000000000000000
00000000000000000000000000000000
00000000000000000000000000000000
00000000000000000000000000000000
00000000000000000000000000000000
00000000000000000000000000000000
00000000000000000000000000000000
00000000000000000000000000000000
00000000000000000000000000000000
00000000000000000000000000000000
00000000000000000000000000000000
FCCA0551F1CB10FC460F83E0DC22BB6F
0B007F1CD80E001200D4F30000FD0011
36A70000B9D7E8D706EEDB004F3FD2FA
DAAAD1CB0056004706C4000B0DD0F3F3
5100F3BC3E50D700CE29790000A900B8
1500032884C0E0DC00D4DC694DC603FF
1400C2F2CCE6220000E003C5FF000003
031139EDBB6503C6B9D1EC21F3E6B056
E5740344E42D42DBE15A3381EE254DDB
3200D118120D00D300E0A600004100C6
1AF6000002D90E47FA512BFC8B1BE60B
09F9E6AF00B200CEF0D50024DB0A16E3
DD00D44530F11400EAE711000003011E
D6001D2EC900322800DB1BE71D290923
A900F3E5F9487300001AE02156000085
FCCE072548E60B1D0D17070FDA27010D
00000000000000000000000000000000
00000000000000000000000000000000
00000000000000000000000000000000
00000000000000000000000000000000
00000000000000000000000000000000
00000000000000000000000000000000
00000000000000000000000000000000
00000000000000000000000000000000
1212251F311EBE00F7F2F2F4220C2D26
C0000F49F7C700050022870000E000F7
FB1F0000C62DBA49E95400F450C3C52C
010B30EA00F3007FB9310031F9FB1BBA
AA00F7091309E400C3071A00001D00A3
DA0022FBF0B304CD00FC1A1ED6EBD2FE
F600CE24F3E4D40000DDC7ECE20000B1
FF01EED721D6FDDEF1030008E3F55E38
00000000000000000000000000000000
00000000000000000000000000000000
00000000000000000000000000000000
00000000000000000000000000000000
00000000000000000000000000000000
00000000000000000000000000000000
00000000000000000000000000000000
00000000000000000000000000000000
DCC2F07EE00522E3CB11136BB5EC2B1B
E1001A2E1C4A004F00C3CB0000B00014
06DF0000BCB0DC06DD6DCDF9189DC126
DDDFDCB400A300BE2A370047D8E1CB3E
4E00CEBCD04C0300C2D67F0000190039
1A00622FB6210F61009FF051FFB1E8EF
D7000AEF14DC650000D5D9CE0D00009D
FDADED2F310D02E2E516F715E32E5F2B
00000000000000000000000000000000
00000000000000000000000000000000
00000000000000000000000000000000
00000000000000000000000000000000
00000000000000000000000000000000
00000000000000000000000000000000
00000000000000000000000000000000
00000000000000000000000000000000
D60021980BD3F6387F00DD32FB230DF4
0E002EE8FD1C000C00143C00000F00E8
B7190000FB05F5F627EC0C0071CD100B
E8ABF401000E0020E50800103D110D20
6200B0C33B0DED00D002400000FA0027
EE00F9571B0ECA1600F9DE2D1FEEF4F0
F600E6FF9CE9FE0000B1FAECF1000007
00D9EE26B129FEF3F42ED0F4F61DEDF2
00000000000000000000000000000000
00000000000000000000000000000000
00000000000000000000000000000000
00000000000000000000000000000000
00000000000000000000000000000000
00000000000000000000000000000000
00000000000000000000000000000000
00000000000000000000000000000000
00000000000000000000000000000000
00000000000000000000000000000000
00000000000000000000000000000000
00000000000000000000000000000000
00000000000000000000000000000000
00000000000000000000000000000000
00000000000000000000000000000000
00000000000000000000000000000000
00000000000000000000000000000000
00000000000000000000000000000000
00000000000000000000000000000000
00000000000000000000000000000000
00000000000000000000000000000000
00000000000000000000000000000000
00000000000000000000000000000000
00000000000000000000000000000000
00000000000000000000000000000000
00000000000000000000000000000000
00000000000000000000000000000000
00000000000000000000000000000000
00000000000000000000000000000000
00000000000000000000000000000000
00000000000000000000000000000000
00000000000000000000000000000000
00000000000000000000000000000000
00000000000000000000000000000000
00000000000000000000000000000000
00000000000000000000000000000000
00000000000000000000000000000000
00000000000000000000000000000000
00000000000000000000000000000000
00000000000000000000000000000000
00000000000000000000000000000000
00000000000000000000000000000000
00000000000000000000000000000000
00000000000000000000000000000000
00000000000000000000000000000000
00000000000000000000000000000000
00000000000000000000000000000000
00000000000000000000000000000000
00000000000000000000000000000000
00000000000000000000000000000000
00000000000000000000000000000000
00000000000000000000000000000000
00000000000000000000000000000000
00000000000000000000000000000000
00000000000000000000000000000000
00000000000000000000000000000000
00000000000000000000000000000000
00000000000000000000000000000000
00000000000000000000000000000000
00000000000000000000000000000000
00000000000000000000000000000000
00000000000000000000000000000000
00000000000000000000000000000000
00000000000000000000000000000000
DF11E4F0FCCBF1D2E62D1CE202F6DED8
1E00D8E11316000700F7CF0000F20028
05D70000F5FEF3147F3EF600FF2BFA28
07D1F2F10022000411B100EEE7150736
DC00FCF6C0E7F100F364DD0000F600FA
1400F2B3112A0EF900B20F0506F9FDF8
F100DD028204FC00000EE9EBEE00000C
FEE6FE0A070501FDF8CA33FCE7F5F512
00000000000000000000000000000000
00000000000000000000000000000000
00000000000000000000000000000000
00000000000000000000000000000000
00000000000000000000000000000000
00000000000000000000000000000000
00000000000000000000000000000000
00000000000000000000000000000000
00000000000000000000000000000000
00000000000000000000000000000000
00000000000000000000000000000000
00000000000000000000000000000000
00000000000000000000000000000000
00000000000000000000000000000000
00000000000000000000000000000000
00000000000000000000000000000000
00000000000000000000000000000000
00000000000000000000000000000000
00000000000000000000000000000000
00000000000000000000000000000000
00000000000000000000000000000000
00000000000000000000000000000000
00000000000000000000000000000000
00000000000000000000000000000000
00000000000000000000000000000000
00000000000000000000000000000000
00000000000000000000000000000000
00000000000000000000000000000000
00000000000000000000000000000000
00000000000000000000000000000000
00000000000000000000000000000000
00000000000000000000000000000000
3C24FFE57F07B2F24CC120EFDCD5D7D8
460038E7E605004E003D180000EA00F4
333D00006453F91B1BEBE7FED5F1E835
FFF2290C00F30027EF0400F4E0070ECC
E200F9EAE60EFF0016AD9C000012022A
1D00E44E5F8A8401001312BD1CCBCE26
F70018231EFCFF0000F2EB06E40000A8
FEC61BED080707136406DAFE100F1445
00000000000000000000000000000000
00000000000000000000000000000000
00000000000000000000000000000000
00000000000000000000000000000000
00000000000000000000000000000000
00000000000000000000000000000000
00000000000000000000000000000000
00000000000000000000000000000000
0259F6DDAEDB4D336C0311F7E9232FF5
2700FD400B4600AF00FC4100003800C2
29FD0000E1D2202EEFBE01090A57E8FA
26E8C92B001D00021E51002E49E8FDD5
27004BE2F8002400783BEB000017FE3D
B500F466232BD5E800C91D35183D14E2
DB0009D0F5FAE300009FE0181C0000BD
FC052E4F31B108FEFF1CF9007F65F637
D30BF5EF2B25EC01DB41F2CAFD7FDEEC
37002466E0BB0006001CE600004900E5
26C50000CB080A27F1FC0605D8E7E027
342117030035002BCF11003D2FF718DF
C6000710E6FB300021FD1800002200CC
FF00E35A2F033FE4000D73CEE903E8F8
E600E8F9F419BF0000560BF642000006
01E9291E220C0439DB1E1121EEC1F4FB
00000000000000000000000000000000
00000000000000000000000000000000
00000000000000000000000000000000
00000000000000000000000000000000
00000000000000000000000000000000
00000000000000000000000000000000
00000000000000000000000000000000
00000000000000000000000000000000
00000000000000000000000000000000
00000000000000000000000000000000
00000000000000000000000000000000
00000000000000000000000000000000
00000000000000000000000000000000
00000000000000000000000000000000
00000000000000000000000000000000
00000000000000000000000000000000
461D40E707CFD83A3D4A68B0E303B213
D900CACD0C3F00C400EF6900004800AD
0FF000002B3E2DF9FC8839010905D0BD
2740D4AE00B80045CCFD0016E61115DE
17001ACBE8EA0F005BF50200000EFF24
1500C72A1AC2F5EE0029C00B22CA1B38
1C00F5E6C5DFA00000B6E2365D0000E9
FB4625B7DFEC0666D17FDDB803313638
