5B098C817FD77F81D700EC0559F3B9F2
7F3810EEE9E00981E4DB6C0C5CC3FBA8
C1A8EE817FD47F818114B4057F24A7F4
818409958191DDFAF247858DFCF3E0D9
F2F2CB81C6A6E6F0CA748137F44981DF
811F2CFCB4D0CEB4E505812C81BFD97F
810FF181250D7F81460A89EB81C53867
7F0981DDE90FEA81FD81EC81FAEFACF0
F10FAF100DD1E8C8E63115193E1795F1
6B489381CEFE459581002BF07FD80A05
D4F3A287362C139317CE960B2B7F421A
8AC4E6F2FADEECF1E8C81094F2120EC4
08E003D40EB70BFB0A1CEB2EF4FD06EE
077FD3DAFF0F1D8127DDF894A33594E8
14D10CEEFA0046C4F9B6FDC8CE0B2E7F
47EB940039F60CF919BF8110B3F4001F
E0D28106F081B781A116F5663F7FA2D7
282681BF81D229D2DDD83E85EA81812A
1743D70367E777A5DA0310FD13527F2C
B821F4D7024B10AE0581658F00D40B81
08D807BFFAF98181D394C9F6249F012C
07FB33EFF681B9968C8109AC0097DD7C
F310DCB981F748C003E8E9F1CDE57F7B
02F31CE511D9FC16ACD5A3EF81C5FFF8
7FEAC9BCF2E6425D7FEBB5AB1C8A45FD
D723F909FEF514F4F60C7F0E1D08F532
F4B17FF6369F36FC8FED070609E4FBF1
02B71E24D127E3F881EE2DF6104C1401
D7270EF6D5CC09048164A6E4BA3F8407
E4F648EE81E612FD1603FE02A4AD1112
D2CF06F3D9F20D1931EEAB000D812846
22D68513BA91F086E0E8F6BE291090C8
0ACAF7F2D40935253FE7DAE410D66E10
A83CCBE911B47F130A0C42C0D815054C
DDB449FC74D1A21942F415ECEEF92662
0CFFFF7FFD7FEC12A91E5B0FFAF3EC1B
0C1DCEE90FCBF906FC410B7FFA11F318
F9F8810BF7F3DAC881ECFE810D7FEFF2
E7C6EC14C3D9EC06B51713E71BF8215B
2714C1320F1BF0EFA2DBE51BF38119C0
FEAAEEEADEECEA565BCD0636EC557F81
C9041814EB1EDBEAF4833081DED6B84C
E77FD6053EBE04EACF6A7FF2FB233B19
85D51ED600F3D681F4A881EBE7F3BB4D
DB07FCF7E422BFEB109CFC12F19BE77F
04FA1A1AFFD981A9FE0CF3311FBC8148
E80481DCC51206B81E81E9EC9BDBFE54
23E4FE335E05C6FD812BFBD59BC581DD
E8E4F6F60D0C0D4D385581038A16C1F6
F6D9EDE4FEF44C0706DCF201B6DEF346
DCFDC011DA815B029D0101D82B0037FF
DE8116EAF66DF0EDB0944CEF8176FBC5
817FFD09002200FBBA7FEF3B817FFA00
C7FE3D28C30FFBFD9CEAA0E298A6D818
19BD07DDE5B8EC067FEFCD50F7A3CAFB
D281D8ED81A77F0511110F9EE5FE1CC5
03D2DDE1430BD764367FBC02BEF9E8FC
E0B4E718F6F158EBDF05EBE01CF7065B
DABF05F109E2FA0465442681FD9CBF7F
06066F1103508103B613DC13CB81C6C8
CD3FB10E8181E9FFDD72EE33E35A0B31
E3D9967F0DE5B702AD08FCAADA161A0A
00810EDCFD810E00E4DE7F7FEAE9B4FB
FDE8E416B0D9370EBEF206DEE8E1D581
0A811D004AE5F17C4615FE7F8166EBC2
C781F5E40581B6110C81D2E32BFAC47F
811DDD07E91B08F5D17FFAACF09AD020
A1D77F9EFCCDDC93117E9381F9E7811B
0C2081FDF9F7E604F2B516FBAB2EF06C
F0E71A6FF9069D121AFB0507B2FF9C2B
EAB28D14119E40A36EE0591FC32291D0
F0F8F37F4181FFECE8CBDEF3EFBEFDC7
