F3F00F2E1E8DF3A10F5DE193CC7F1A20
ECE7840BD4070AD68181C40981B903BE
81EE0E8A010707F9B1F00E192306B3E7
CBF0C61D15A581FFCB0148E423BB8181
FF2481CA7FFA81FBF915D10DE5062081
81818111FA9FAC9CF2A5F119DBF181DF
9CDA8103D2030001817F02951227C881
D5811111E989BB81F9F4E7EB811E13F9
09EBC5A681811F83E9C38E8108F2A5D1
378181C081CBDAA9C711FFCE118F2A7F
A2F8FC81DAF803F2810DECEE0F7F8109
148881D4F8FCD00CC2CECBDCE9D1D8B6
07B806C93E07E78112FDEDBEDE81DECD
94FCE7E981FAFA1A0BB50BF4B700F4DA
B2F911F9D3140913F111DAC5171B81D9
FF8911161793F4AA702907FCAF48A1FD
A014A7059E8CD381F3EA81A181FA8181
B4A81781D50EEB8899F4F781DD81E1AC
D5818DD90581A809A5FA05F99329D0FB
FBAB3081F001ADFCAED51581EF041408
F416ED0E64E4EBBBF52AFF0F0893810D
D5F6BDDF510507DC81EAF33DD7010281
810DE9FB818CD9811C520DDC334BE21C
B5C48CE7EEBDACFC01B2E8FBC2C4FCF5
0DD6F621B7EEF9FEFD2BEFDB1424CFCF
81030510F00EFBFD1B17BB03FE13F0D9
D4F8EEF0E408F9ED0F0881E6C8ED1D81
811309E0E581D0E1E2247FF8AD8199AD
F2BEC8AB11FD151016128114C80ECF91
F2EB06EEE1818118170FCA16FC1BEA03
DDF6CA01CBE1F7E3F97A0381361D0FF0
0D1BF6A418E618DE0411E0E3E87AE716
D4EB18978FD7C5F4F681F5F008D40DE5
BC840AD2DBA416334CFB060400F5BB3A
220716E212FE03BCF4E80095040FC8EC
C2FAA0F8FEFEEDC499C325128103E6FA
0747FBFF96045BF3E8F4C88119ED1CD2
F2010708B9FDF9D2EB7F092D81C5DCFE
DFE2F30B2E03F3F517C61CDB7FF6CC09
345BE6C2D651F6177FE111180830BB03
91F9812351C6ED0807FA1A0EB1D7F0D1
B6F1F9E8FFE9DCDE3FEB00DEFED581D9
FBA5811502F881F70609ECC5DE02EFFD
DF99FE8B1EFF0C28B3DF209114FF59FF
E1F30E6E288121E7D3141381F313C0FA
FAF1EC0C38F2CFC99705157FC981F898
F00800FDCF81B48506F8F9217408FFEC
A42081AE0B4281040D811AF1FF811AE9
0981D7E4BE038107F810F211FB1507E3
F6EFB3CBF481E98CADBA81FA08FCDD17
E7FDDCC481F2AEFF0981CBE49102EBB2
C1B710ED81A4E38154F929FED98E2DD6
FA81B181F6FA28D4E6F287F011F300C8
03ECC881A8F8C8FBF359811106FA0C11
028106DBD1160CD61A30B01AB93FE406
D72C031CC04C00FEFB04A381F63592CA
C0AAFB81A00BB213D9D1FEDEE8F6F40D
0CCF1217F69CEBF1DADFC003EE04B830
02F202E2EBFD0081FDBB15F68809150D
0CDBC316EAF520EF6F81E20117EE3DF0
EB85FFDA25F9421C811FCA9181F8E5DD
0BDAF9D099F601AAFC76A41CC4D7AFCD
0400E88106F70102F6F981FAD67FFBF9
DD61FFDC816807F625EE81BD03FA81CB
81080D46E8FD12EB81370008DB2AFCE7
E513E1F90EDA81811112080C0204A1E9
F0EC83F5E00896ECE9E8F681810EBFF5
0C81C3EFD700E0C37FC321F7E1025A20
819CEE491DC40BF5CF7F1116FE020E07
EA0D12D607F1F081F93A024925E1FAA6
FFE600FB09B781F6E417B6D5165B06D5
8115B781E87FC9FF9EE2F3F5E592E981
