DB071622E721810D73322E1E663FBDD2
FB2DB8E523F20D7F350DEBED8C1108D7
4303DC16072B8144E94C191CE36A0892
102DFD064C6DDD0918EC7F3FDFF7F0FB
AE14E028760F5630CEE526F4F081D83E
3AFC06C17F041905C537E1E7549C03F9
2EF77FEE2C06E4179118FFD3CC151B0A
E3D550F7F80C34482619227FF8F4B242
09CA040CE7DCEED16781C2F35CCD0CE9
0AEEBB071821FE02A47F0DF14313B7F8
D4217FC9380B01F0102A25F4C10AE222
E6F229220D14AD7FD7F219EB2F09D4EA
34DEE1E07F06EB1CD51013F50F5632B9
EAB9FC2BF9332B1BCCF4392F7FE2D921
2B02F8E3200A3424230D08F6813410FD
27AFF00B79DB771581DAB569C1CAD2F0
14A519F9690B810606190C1E0764F202
2817419525EA08EB6F11D6B17FF5F965
A8CA50EE15FB23E83515F77FEC193657
A0FD9A222D08306AE7FA107FF518F641
0BF4172002FA0E7FF3C50901FE02FB07
E735047FD537F0E219C52F2AFCEDDF1E
7FDAC50E7DF4ECEFCFD4F86A18F80B0D
DFEDCFD52B067FFDF6F706EABB82E4FD
DA007FB21F04F40BF22B1E01FA29E7CE
30000DE57FF9CE08F507042AF7AFFF17
79367F001805D947654A1EEC4CF40E62
F43FC6F4284472E47F05459EF2D9A14C
0F2B0C7FF801EA3F124F040CE9CFFDDD
E7A63AFA10F981EDFE28F920451F242F
FB0CFAF4FE6D00EF0FEE7FFE05030A01
81436E73BE1949D5370F0CE01B41F9C8
