F0CB38F911B30AB354DD138C961297B2
FD0AC4DBCB563B6B3A3696A00F3E49DB
084CE907FCC6BCD229FE9A1C11F09413
CEEDCB6B37B77C7FB69EC21018539A7F
2CA5FE2DDBCEA15FF25A52811486F75D
F51993B881278E9AAF0E267FA67942C4
3B16EF1B66856DE1F0176781A37581F1
E4EAB0E44DE47FE4A4818C39036566E8
E6BAD010CD300132867FD8AD6CEEE2CD
D416DDB0A7510FCAEB487F482FE1B6DB
2EDAE6C638B2B7F1811691F9E700C0CB
7FFEF1D7A5A154D3B5A4810EDA0D17E1
B80F7E2B5A2B84D67FAA8104F7555EE7
3D7906C51549F3D524A0C794023A6903
2E7FA5617B1FBBEB5238E2817FB7377F
C8DCE97F55ABC30FBEF8130C69DA9A5D
7F7FF87F7F7FE07F4A16146B69EE7E7F
0D1220C17C7FAC7F8181642B92F95A32
7F20817F7F747FDA187F7FFC16645CDA
3AECE2C251ECD41418CDCA760A19E340
372F81091EC07F0A5C225E356AAB0CBF
8D0209ADA3407F8B2509196649B2EF2F
01B4C6C13228B1ED9A33EB4C0ECCC6C6
360296B58181C7187F0DE00BAA817FBC
F4FA3428513998FB48AEBD35AA057FF4
7F7F2381D7F688C8DFB43BDC1A817F13
21F1B41BF23AA2ED0B1304BD4790DB12
F0E32434283FCEE8D69D17A858CB059C
BDF60577FAC22B5326D2D27044136807
07677F9E2DC8222CC1D6F4C381A02C7F
32B3C414037F23811F56266AFBDF11A9
AABB7FE7EE52C32919B2EA8109A58F02
11D1B3BE060C52F1F5824B097F819001
8AF605CC97CE69CEE957EFF20FFA5009
09C9070C1B28FECA3B0CF21EDF81D9E7
E47F16E2AB41D8146EC808C98114D7ED
