0000000000000000000000000000000000000000000000000000000000000000
0000000000000000000000000000000000000000000000000000000000000000
0000000000000000000000000000000000000000000000000000000000000000
0000000000000000000000000000000000000000000000000000000000000000
0000000000000000000000000000000000000000000000000000000000000000
0000000000000000000000000000000000000000000000000000000000000000
0000000000000000000000000000000000000000000000000000000000000000
0000000000000000000000000000000000000000000000000000000000000000
0000000000000000000000000000000000000000000000000000000000000000
0000000000000000000000000000000000000000000000000000000000000000
0000000000000000000000000000000000000000000000000000000000000000
0000000000000000000000000000000000000000000000000000000000000000
0000000000000000000000000000000000000000000000000000000000000000
0000000000000000000000000000000000000000000000000000000000000000
0000000000000000000000000000000000000000000000000000000000000000
0000000000000000000000000000000000000000000000000000000000000000
0000000000000000000000000000000000000000000000000000000000000000
0000000000000000000000000000000000000000000000000000000000000000
0000000000000000000000000000000000000000000000000000000000000000
0000000000000000000000000000000000000000000000000000000000000000
0000000000000000000000000000000000000000000000000000000000000000
0000000000000000000000000000000000000000000000000000000000000000
0000000000000000000000000000000000000000000000000000000000000000
0000000000000000000000000000000000000000000000000000000000000000
0000000000000000000000000000000000000000000000000000000000000000
0000000000000000000000000000000000000000000000000000000000000000
0000000000000000000000000000000000000000000000000000000000000000
0000000000000000000000000000000000000000000000000000000000000000
01FF00000000E00000004600190000F4DA000000C10015B803FC00CDE9BA0400
0000ED0100FD000000FA2A00000A00FD00F1FC00AD000C00F6E7F80002CDC2FA
00200131000000000000000000FC007F00C5000000000000001200E619FD00E0
3B000020CE002D0000000000000000000000000000000C002A00FA0D0000140B
0000000000000000000000000000000000000000000000000000000000000000
0000000000000000000000000000000000000000000000000000000000000000
0000000000000000000000000000000000000000000000000000000000000000
0000000000000000000000000000000000000000000000000000000000000000
0000000000000000000000000000000000000000000000000000000000000000
0000000000000000000000000000000000000000000000000000000000000000
0000000000000000000000000000000000000000000000000000000000000000
0000000000000000000000000000000000000000000000000000000000000000
0000000000000000000000000000000000000000000000000000000000000000
0000000000000000000000000000000000000000000000000000000000000000
0000000000000000000000000000000000000000000000000000000000000000
0000000000000000000000000000000000000000000000000000000000000000
0000000000000000000000000000000000000000000000000000000000000000
0000000000000000000000000000000000000000000000000000000000000000
0000000000000000000000000000000000000000000000000000000000000000
0000000000000000000000000000000000000000000000000000000000000000
0000000000000000000000000000000000000000000000000000000000000000
0000000000000000000000000000000000000000000000000000000000000000
0000000000000000000000000000000000000000000000000000000000000000
0000000000000000000000000000000000000000000000000000000000000000
0000000000000000000000000000000000000000000000000000000000000000
0000000000000000000000000000000000000000000000000000000000000000
0000000000000000000000000000000000000000000000000000000000000000
0000000000000000000000000000000000000000000000000000000000000000
EE6A0000000009000000DD00450000ADB30000002500BFBA26FD00F4CFF7FA00
00006F1100D5000000413C0000FC002700F2D600BD00BE001425FA006946047F
0001ECF1000000000000000000D10014000C00000000000000EC0006204E0064
F50000023500F2000000000000000000000000000000DE000200EBB60000F0ED
0000000000000000000000000000000000000000000000000000000000000000
0000000000000000000000000000000000000000000000000000000000000000
0000000000000000000000000000000000000000000000000000000000000000
0000000000000000000000000000000000000000000000000000000000000000
E75100000000C7000000E000E40000C381000000CE00D29FDAFB00F03E9E1100
000063F7008B000000EA4D00005F001C00D40F0070008800AA582B001E4DFE7D
00C21ADA000000000000000000C800CC001500000000000000050005C1320038
D80000CB3F009A00000000000000000000000000000026000400CD5B0000DAE0
0000000000000000000000000000000000000000000000000000000000000000
0000000000000000000000000000000000000000000000000000000000000000
0000000000000000000000000000000000000000000000000000000000000000
0000000000000000000000000000000000000000000000000000000000000000
0000000000000000000000000000000000000000000000000000000000000000
0000000000000000000000000000000000000000000000000000000000000000
0000000000000000000000000000000000000000000000000000000000000000
0000000000000000000000000000000000000000000000000000000000000000
0000000000000000000000000000000000000000000000000000000000000000
0000000000000000000000000000000000000000000000000000000000000000
0000000000000000000000000000000000000000000000000000000000000000
0000000000000000000000000000000000000000000000000000000000000000
0000000000000000000000000000000000000000000000000000000000000000
0000000000000000000000000000000000000000000000000000000000000000
0000000000000000000000000000000000000000000000000000000000000000
0000000000000000000000000000000000000000000000000000000000000000
0000000000000000000000000000000000000000000000000000000000000000
0000000000000000000000000000000000000000000000000000000000000000
0000000000000000000000000000000000000000000000000000000000000000
0000000000000000000000000000000000000000000000000000000000000000
0000000000000000000000000000000000000000000000000000000000000000
0000000000000000000000000000000000000000000000000000000000000000
0000000000000000000000000000000000000000000000000000000000000000
0000000000000000000000000000000000000000000000000000000000000000
0000000000000000000000000000000000000000000000000000000000000000
0000000000000000000000000000000000000000000000000000000000000000
0000000000000000000000000000000000000000000000000000000000000000
0000000000000000000000000000000000000000000000000000000000000000
0000000000000000000000000000000000000000000000000000000000000000
0000000000000000000000000000000000000000000000000000000000000000
0000000000000000000000000000000000000000000000000000000000000000
0000000000000000000000000000000000000000000000000000000000000000
0000000000000000000000000000000000000000000000000000000000000000
0000000000000000000000000000000000000000000000000000000000000000
0000000000000000000000000000000000000000000000000000000000000000
0000000000000000000000000000000000000000000000000000000000000000
0000000000000000000000000000000000000000000000000000000000000000
0000000000000000000000000000000000000000000000000000000000000000
0000000000000000000000000000000000000000000000000000000000000000
0000000000000000000000000000000000000000000000000000000000000000
F4FE00000000060000000F007F00009C4900000051001ECDA728003A504DEC00
0000491B0050000000E9FD0000EB00E700CAF4003100EA0000A70E00D4383B3E
003B20BC000000000000000000EA00D6000D000000000000001000FFF1E400D5
1C0000B24C000B000000000000000000000000000000FB00EE00F420000013D5
0000000000000000000000000000000000000000000000000000000000000000
0000000000000000000000000000000000000000000000000000000000000000
0000000000000000000000000000000000000000000000000000000000000000
0000000000000000000000000000000000000000000000000000000000000000
0000000000000000000000000000000000000000000000000000000000000000
0000000000000000000000000000000000000000000000000000000000000000
0000000000000000000000000000000000000000000000000000000000000000
0000000000000000000000000000000000000000000000000000000000000000
0000000000000000000000000000000000000000000000000000000000000000
0000000000000000000000000000000000000000000000000000000000000000
0000000000000000000000000000000000000000000000000000000000000000
0000000000000000000000000000000000000000000000000000000000000000
1ABA000000006C000000F700FE000027C8000000DB00551448330040815EFB00
00002D290013000000CF060000FC000A0038EF00B800BA002C96DC0050E501E2
00F9F8AF000000000000000000F200D900E900000000000000D800D304DD000D
B9000008F80037000000000000000000000000000000C900160021CF0000B515
0000000000000000000000000000000000000000000000000000000000000000
0000000000000000000000000000000000000000000000000000000000000000
0000000000000000000000000000000000000000000000000000000000000000
0000000000000000000000000000000000000000000000000000000000000000
0000000000000000000000000000000000000000000000000000000000000000
0000000000000000000000000000000000000000000000000000000000000000
0000000000000000000000000000000000000000000000000000000000000000
0000000000000000000000000000000000000000000000000000000000000000
197300000000E5000000DB00D10000F3B80000003B001CF4D6BA00BEA4B4CC00
0000A43D00FB000000113A0000B3001C0071E8009C00F2003CFB040012F506BE
00282305000000000000000000FE003800040000000000000096000CFA3500F0
CF00002DD7000D00000000FE0000000000000000FF00CF00810027000000F6D8
0000000000000000000000000000000000000000000000000000000000000000
0000000000000000000000000000000000000000000000000000000000000000
0000000000000000000000000000000000000000000000000000000000000000
0000000000000000000000000000000000000000000000000000000000000000
0000000000000000000000000000000000000000000000000000000000000000
0000000000000000000000000000000000000000000000000000000000000000
0000000000000000000000000000000000000000000000000000000000000000
0000000000000000000000000000000000000000000000000000000000000000
0000000000000000000000000000000000000000000000000000000000000000
0000000000000000000000000000000000000000000000000000000000000000
0000000000000000000000000000000000000000000000000000000000000000
0000000000000000000000000000000000000000000000000000000000000000
0000000000000000000000000000000000000000000000000000000000000000
0000000000000000000000000000000000000000000000000000000000000000
0000000000000000000000000000000000000000000000000000000000000000
0000000000000000000000000000000000000000000000000000000000000000
0000000000000000000000000000000000000000000000000000000000000000
0000000000000000000000000000000000000000000000000000000000000000
0000000000000000000000000000000000000000000000000000000000000000
0000000000000000000000000000000000000000000000000000000000000000
0000000000000000000000000000000000000000000000000000000000000000
0000000000000000000000000000000000000000000000000000000000000000
0000000000000000000000000000000000000000000000000000000000000000
0000000000000000000000000000000000000000000000000000000000000000
0000000000000000000000000000000000000000000000000000000000000000
0000000000000000000000000000000000000000000000000000000000000000
0000000000000000000000000000000000000000000000000000000000000000
0000000000000000000000000000000000000000000000000000000000000000
0000000000000000000000000000000000000000000000000000000000000000
0000000000000000000000000000000000000000000000000000000000000000
0000000000000000000000000000000000000000000000000000000000000000
0000000000000000000000000000000000000000000000000000000000000000
0000000000000000000000000000000000000000000000000000000000000000
0000000000000000000000000000000000000000000000000000000000000000
0000000000000000000000000000000000000000000000000000000000000000
0000000000000000000000000000000000000000000000000000000000000000
0000000000000000000000000000000000000000000000000000000000000000
0000000000000000000000000000000000000000000000000000000000000000
0000000000000000000000000000000000000000000000000000000000000000
0000000000000000000000000000000000000000000000000000000000000000
0000000000000000000000000000000000000000000000000000000000000000
0000000000000000000000000000000000000000000000000000000000000000
0000000000000000000000000000000000000000000000000000000000000000
0000000000000000000000000000000000000000000000000000000000000000
0000000000000000000000000000000000000000000000000000000000000000
0000000000000000000000000000000000000000000000000000000000000000
0000000000000000000000000000000000000000000000000000000000000000
0000000000000000000000000000000000000000000000000000000000000000
0000000000000000000000000000000000000000000000000000000000000000
0000000000000000000000000000000000000000000000000000000000000000
0000000000000000000000000000000000000000000000000000000000000000
0000000000000000000000000000000000000000000000000000000000000000
CD0200000000040000007600DD00008BF5000000C30061E2048D00FBE8BF5600
0000813C00BC000000CCDA00002200FC00320100E5001F0022A90100ACFA2124
00B32A13000000000000000000FE00BF002C0000000000000006001218A10053
D00000ECDC005500000000FF0000000000000000000023003C0052AA00001F63
01FC00000000DA0000003E00D500004744000000F700B918F5340015FBC23700
00007F7D00FF000000EA0F00004B003A002BFC002E0046002C47F400B9CB2965
003CC4A80000000000000000000400FC00C5000000000000000600EFC4AD00A2
CA000030ED001B000000000100000000000000000000BE00C4001601000008E6
2038000000002E0000004D00E20000ECD5000000B20006250CBC00ECD2601700
000029DF00D5000000FBD30000F000E700D3F300F1000E00FDC5ED001324F0D1
00FBE70000000000000000000003007F000400000000000000D0001C1E2300E1
E40000F7EF00E6000000000400000000000000000000F4001E0000D60000E426
0000000000000000000000000000000000000000000000000000000000000000
0000000000000000000000000000000000000000000000000000000000000000
0000000000000000000000000000000000000000000000000000000000000000
0000000000000000000000000000000000000000000000000000000000000000
0000000000000000000000000000000000000000000000000000000000000000
0000000000000000000000000000000000000000000000000000000000000000
0000000000000000000000000000000000000000000000000000000000000000
0000000000000000000000000000000000000000000000000000000000000000
0000000000000000000000000000000000000000000000000000000000000000
0000000000000000000000000000000000000000000000000000000000000000
0000000000000000000000000000000000000000000000000000000000000000
0000000000000000000000000000000000000000000000000000000000000000
0000000000000000000000000000000000000000000000000000000000000000
0000000000000000000000000000000000000000000000000000000000000000
0000000000000000000000000000000000000000000000000000000000000000
0000000000000000000000000000000000000000000000000000000000000000
0000000000000000000000000000000000000000000000000000000000000000
0000000000000000000000000000000000000000000000000000000000000000
0000000000000000000000000000000000000000000000000000000000000000
0000000000000000000000000000000000000000000000000000000000000000
0000000000000000000000000000000000000000000000000000000000000000
0000000000000000000000000000000000000000000000000000000000000000
0000000000000000000000000000000000000000000000000000000000000000
0000000000000000000000000000000000000000000000000000000000000000
0000000000000000000000000000000000000000000000000000000000000000
0000000000000000000000000000000000000000000000000000000000000000
0000000000000000000000000000000000000000000000000000000000000000
0000000000000000000000000000000000000000000000000000000000000000
0000000000000000000000000000000000000000000000000000000000000000
0000000000000000000000000000000000000000000000000000000000000000
0000000000000000000000000000000000000000000000000000000000000000
0000000000000000000000000000000000000000000000000000000000000000
0000000000000000000000000000000000000000000000000000000000000000
0000000000000000000000000000000000000000000000000000000000000000
0000000000000000000000000000000000000000000000000000000000000000
0000000000000000000000000000000000000000000000000000000000000000
004400000000FE0000000A0000000000DC000000FD0000FFFF00000037FD4200
0000FF0500E200000000000000000000000000004000D500000001000126000F
0081000000000000000000000000000100000000000000000000000003FF00F6
D20000EF0100E00000000000000000000000000000000000FE00FE0000000002
0000000000000000000000000000000000000000000000000000000000000000
0000000000000000000000000000000000000000000000000000000000000000
0000000000000000000000000000000000000000000000000000000000000000
0000000000000000000000000000000000000000000000000000000000000000
0000000000000000000000000000000000000000000000000000000000000000
0000000000000000000000000000000000000000000000000000000000000000
0000000000000000000000000000000000000000000000000000000000000000
0000000000000000000000000000000000000000000000000000000000000000
0000000000000000000000000000000000000000000000000000000000000000
0000000000000000000000000000000000000000000000000000000000000000
0000000000000000000000000000000000000000000000000000000000000000
0000000000000000000000000000000000000000000000000000000000000000
0000000000000000000000000000000000000000000000000000000000000000
0000000000000000000000000000000000000000000000000000000000000000
0000000000000000000000000000000000000000000000000000000000000000
0000000000000000000000000000000000000000000000000000000000000000
0000000000000000000000000000000000000000000000000000000000000000
0000000000000000000000000000000000000000000000000000000000000000
0000000000000000000000000000000000000000000000000000000000000000
0000000000000000000000000000000000000000000000000000000000000000
0000000000000000000000000000000000000000000000000000000000000000
0000000000000000000000000000000000000000000000000000000000000000
0000000000000000000000000000000000000000000000000000000000000000
0000000000000000000000000000000000000000000000000000000000000000
511100000000B20000005700F0000020FE000000AE00C74AD7BA00C016DC7F00
0000CD3B00FC00000005ED0000DF000E00BAE200160015000714EB00DBF22005
002EC6FF0000000000000000000100DB00DF00000000000000A900DC44200023
A8000053D5007900000000FF000000000000000000009A00F70034EB00005BC7
0000000000000000000000000000000000000000000000000000000000000000
0000000000000000000000000000000000000000000000000000000000000000
0000000000000000000000000000000000000000000000000000000000000000
0000000000000000000000000000000000000000000000000000000000000000
0000000000000000000000000000000000000000000000000000000000000000
0000000000000000000000000000000000000000000000000000000000000000
0000000000000000000000000000000000000000000000000000000000000000
0000000000000000000000000000000000000000000000000000000000000000
0000000000000000000000000000000000000000000000000000000000000000
0000000000000000000000000000000000000000000000000000000000000000
0000000000000000000000000000000000000000000000000000000000000000
0000000000000000000000000000000000000000000000000000000000000000
FA420000000081000000F700D00000D2CC00000043000AC81B31009F44C30F00
0000390F008F00000024E8000031001A000D54007D001700E4AD2C0027646E5F
00F621DE000000000000000000EF008B00AC00000000000000BD00D4C4FA00E2
280000F4FD00E00000000000000000000000000000000E000C00074200001BAF
0000000000000000000000000000000000000000000000000000000000000000
0000000000000000000000000000000000000000000000000000000000000000
0000000000000000000000000000000000000000000000000000000000000000
0000000000000000000000000000000000000000000000000000000000000000
0000000000000000000000000000000000000000000000000000000000000000
0000000000000000000000000000000000000000000000000000000000000000
0000000000000000000000000000000000000000000000000000000000000000
0000000000000000000000000000000000000000000000000000000000000000
0000000000000000000000000000000000000000000000000000000000000000
0000000000000000000000000000000000000000000000000000000000000000
0000000000000000000000000000000000000000000000000000000000000000
0000000000000000000000000000000000000000000000000000000000000000
0000000000000000000000000000000000000000000000000000000000000000
0000000000000000000000000000000000000000000000000000000000000000
0000000000000000000000000000000000000000000000000000000000000000
0000000000000000000000000000000000000000000000000000000000000000
0000000000000000000000000000000000000000000000000000000000000000
0000000000000000000000000000000000000000000000000000000000000000
0000000000000000000000000000000000000000000000000000000000000000
0000000000000000000000000000000000000000000000000000000000000000
0000000000000000000000000000000000000000000000000000000000000000
0000000000000000000000000000000000000000000000000000000000000000
0000000000000000000000000000000000000000000000000000000000000000
0000000000000000000000000000000000000000000000000000000000000000
169300000000B50000002000FF00006917000000F100A709F29F003D04F1FB00
0000CF0500DF00000033E10000E3001900C3CE00B1001A0073E900005BBC4C0F
0023E6420000000000000000001800D4008100000000000000C100FC69FE0043
460000FFC7002400000000FF00000000000000000000F8001E00D0FE0000F0F7
0000000000000000000000000000000000000000000000000000000000000000
0000000000000000000000000000000000000000000000000000000000000000
0000000000000000000000000000000000000000000000000000000000000000
0000000000000000000000000000000000000000000000000000000000000000
FFFF00000000120000000D001A0000FDF1000000740010FFF22800F7FF020300
00001DFE0003000000FFFF0000FE00F2000E020007001B00FC0BF600F30717F3
0045FF03000000000000000000000046001900000000000000F7000202F8000F
7F0000FF0A00F70000000000000000000000000000000E000000010500000203
3ACD00000000F8000000DC009600006005000000C100F5700EDE00D3360C4400
0000C2C300FD000000D7E100009B00140003F500BD009D003EFFFE00202B3DF8
0032D636000000000000000000FE00E1008A0000000000000081005A370400A4
D800004AB9000700000000FF00000000000000000000AD002600322800001121
0000000000000000000000000000000000000000000000000000000000000000
0000000000000000000000000000000000000000000000000000000000000000
0000000000000000000000000000000000000000000000000000000000000000
0000000000000000000000000000000000000000000000000000000000000000
E8480000000008000000FE00F70000CF36000000DB0009C99B250051713C2600
00001E7B0030000000F5220000E100F900BBD8002000CE0000A91F001E61E84A
000B28E4000000000000000000E800E10047000000000000004600F21AC500D9
B70000A84A0040000000000000000000000000000000C800DF00EE7F0000301E
0000000000000000000000000000000000000000000000000000000000000000
0000000000000000000000000000000000000000000000000000000000000000
0000000000000000000000000000000000000000000000000000000000000000
0000000000000000000000000000000000000000000000000000000000000000
0000000000000000000000000000000000000000000000000000000000000000
0000000000000000000000000000000000000000000000000000000000000000
0000000000000000000000000000000000000000000000000000000000000000
0000000000000000000000000000000000000000000000000000000000000000
F8F500000000AD0000006000AC00000736000000C100FA7B68C500DECA171F00
0000CB3B006B000000F876000000002800C21E002F004F00D0DD1B001803B610
00DFF5CB0000000000000000001B001D00DB000000000000000400E0E0CA0012
08000045DF004E0000000000000000000000000000003A00E50081C900001136
2527000000000E0000001000070000C5E500000005001CE60AF800081AEE7F00
0000E6FE002D000000EF1200000D000500DBCB001900E200F9E03500FF3203EA
00D3FCED000000000000000000FF000300E400000000000000EC0004FC0C00F0
1E0000092A00F3000000000100000000000000000000ED000000F8FD0000F815
01F900000000DA0000004400EE0000B26E000000BB0015003CDD002DE2B33700
000018F80020000000F8C5000018003A003D0500A3005D001727B100132F12DF
00ED04D6000000000000000000E400E3001900000000000000AC00B3E6030060
DB000029D4001E00000000030000000000000000000078004100092E00002E7F
0000000000000000000000000000000000000000000000000000000000000000
0000000000000000000000000000000000000000000000000000000000000000
0000000000000000000000000000000000000000000000000000000000000000
0000000000000000000000000000000000000000000000000000000000000000
6AB60000000093000000CF00F3000019DA000000D800A9ED240D00C8EDCFF000
000071BF003C00000007D30000CD003F00B9ED0002000B0025001200DA3B3723
007FD90C0000000000000000003800F8003200000000000000C1001B25B4000B
C700007A3D004700000000FD00000000000000000000B50002007741000064EB
0000000000000000000000000000000000000000000000000000000000000000
0000000000000000000000000000000000000000000000000000000000000000
0000000000000000000000000000000000000000000000000000000000000000
0000000000000000000000000000000000000000000000000000000000000000
0000000000000000000000000000000000000000000000000000000000000000
0000000000000000000000000000000000000000000000000000000000000000
0000000000000000000000000000000000000000000000000000000000000000
0000000000000000000000000000000000000000000000000000000000000000
0000000000000000000000000000000000000000000000000000000000000000
0000000000000000000000000000000000000000000000000000000000000000
0000000000000000000000000000000000000000000000000000000000000000
0000000000000000000000000000000000000000000000000000000000000000
0000000000000000000000000000000000000000000000000000000000000000
0000000000000000000000000000000000000000000000000000000000000000
0000000000000000000000000000000000000000000000000000000000000000
0000000000000000000000000000000000000000000000000000000000000000
0000000000000000000000000000000000000000000000000000000000000000
0000000000000000000000000000000000000000000000000000000000000000
0000000000000000000000000000000000000000000000000000000000000000
0000000000000000000000000000000000000000000000000000000000000000
0000000000000000000000000000000000000000000000000000000000000000
0000000000000000000000000000000000000000000000000000000000000000
0000000000000000000000000000000000000000000000000000000000000000
0000000000000000000000000000000000000000000000000000000000000000
0000000000000000000000000000000000000000000000000000000000000000
0000000000000000000000000000000000000000000000000000000000000000
0000000000000000000000000000000000000000000000000000000000000000
0000000000000000000000000000000000000000000000000000000000000000
0FC200000000F90000001600FA000022F6000000ED00FE427FFF001207BAEF00
0000F8F700F5000000EBC300000300730016F000CC00FB0052961B0001FBE5F0
00DDF1120000000000000000001D001500250000000000000099003E2E4D0059
FA0000120A00F8000000000000000000000000000000C6003800F6EA0000F574
0000000000000000000000000000000000000000000000000000000000000000
0000000000000000000000000000000000000000000000000000000000000000
0000000000000000000000000000000000000000000000000000000000000000
0000000000000000000000000000000000000000000000000000000000000000
E81F00000000E90000004E00F90000CBC5000000BA00D1DEDCF3001E2E074200
000016EE00D1000000DFFD0000FD002700FFA700EE000300DEDB5700D31541E8
0097E57200000000000000000019001B0011000000000000009A001B2DDE00B0
3D000013FA00E60000000001000000000000000000009500E600FBFA0000D481
D9FB000000007F000000D500140000D8C1000000FC00F914FA22003DD634E000
0000450900F9000000140D0000F700CC00EAFD004E0002003CEDEB0043FC2D20
00230FF300000000000000000012007E00F3000000000000003100EECAC500C3
230000D837001F0000000001000000000000000000000300E8001B3C0000FFFB
0000000000000000000000000000000000000000000000000000000000000000
0000000000000000000000000000000000000000000000000000000000000000
0000000000000000000000000000000000000000000000000000000000000000
0000000000000000000000000000000000000000000000000000000000000000
0000000000000000000000000000000000000000000000000000000000000000
0000000000000000000000000000000000000000000000000000000000000000
0000000000000000000000000000000000000000000000000000000000000000
0000000000000000000000000000000000000000000000000000000000000000
0000000000000000000000000000000000000000000000000000000000000000
0000000000000000000000000000000000000000000000000000000000000000
0000000000000000000000000000000000000000000000000000000000000000
0000000000000000000000000000000000000000000000000000000000000000
0000000000000000000000000000000000000000000000000000000000000000
0000000000000000000000000000000000000000000000000000000000000000
0000000000000000000000000000000000000000000000000000000000000000
0000000000000000000000000000000000000000000000000000000000000000
0000000000000000000000000000000000000000000000000000000000000000
0000000000000000000000000000000000000000000000000000000000000000
0000000000000000000000000000000000000000000000000000000000000000
0000000000000000000000000000000000000000000000000000000000000000
0000000000000000000000000000000000000000000000000000000000000000
0000000000000000000000000000000000000000000000000000000000000000
0000000000000000000000000000000000000000000000000000000000000000
0000000000000000000000000000000000000000000000000000000000000000
FA1200000000C2000000F900040000B4C9000000BD00DCF60FF000F13CE8F400
0000017F00D2000000E53E000053000200DCE8002F00B50006882600B833FA61
00BBF224000000000000000000EA002400AF00000000000000C5000801F200F2
990000DF1800F3000000000000000000000000000000370030002A7A00000FFF
2C0B000000000B0000000900520000C7FB0000006F0026F201FD00DEF2181500
00002DFE001E00000005EF0000D500EE002321001D00F90015031E00B4534713
001701EC000000000000000000FC0023009C00000000000000CF0002FDE400DD
3500001A0100E3000000000000000000000000000000F70011000D81000012DC
0000000000000000000000000000000000000000000000000000000000000000
0000000000000000000000000000000000000000000000000000000000000000
0000000000000000000000000000000000000000000000000000000000000000
0000000000000000000000000000000000000000000000000000000000000000
0000000000000000000000000000000000000000000000000000000000000000
0000000000000000000000000000000000000000000000000000000000000000
0000000000000000000000000000000000000000000000000000000000000000
0000000000000000000000000000000000000000000000000000000000000000
0000000000000000000000000000000000000000000000000000000000000000
0000000000000000000000000000000000000000000000000000000000000000
0000000000000000000000000000000000000000000000000000000000000000
0000000000000000000000000000000000000000000000000000000000000000
0000000000000000000000000000000000000000000000000000000000000000
0000000000000000000000000000000000000000000000000000000000000000
0000000000000000000000000000000000000000000000000000000000000000
0000000000000000000000000000000000000000000000000000000000000000
E32500000000FC000000D700C40000FDF10000000E0013D9F34A00BB2ACB2D00
0000810200D100000035F40000EC00DE00F32900F9003A00F2EC3600B4062CFE
001FD8E5000000000000000000F5002A00B300000000000000D900EA04D200EC
420000C31000EA000000000000000000000000000000B500CB00C6D4000005B7
23CD000000001F0000001400BE0000ED27000000C900BB56C6810009FC2EDC00
0000F9E3002000000018C700000100ED00F60E00BE00D70033D21200C604F3CC
0000B836000000000000000000D600E500D0000000000000002700E6171200B4
F800004012001A0000000000000000000000000000001B001B001ED00000B5FB
0000000000000000000000000000000000000000000000000000000000000000
0000000000000000000000000000000000000000000000000000000000000000
0000000000000000000000000000000000000000000000000000000000000000
0000000000000000000000000000000000000000000000000000000000000000
0000000000000000000000000000000000000000000000000000000000000000
0000000000000000000000000000000000000000000000000000000000000000
0000000000000000000000000000000000000000000000000000000000000000
0000000000000000000000000000000000000000000000000000000000000000
0000000000000000000000000000000000000000000000000000000000000000
0000000000000000000000000000000000000000000000000000000000000000
0000000000000000000000000000000000000000000000000000000000000000
0000000000000000000000000000000000000000000000000000000000000000
1C3D000000001E000000BA00F70000EA3B000000F90002D0083400DE61293B00
0000E37F0051000000331A0000AA000C00D7E7003B00E30017DE5A00355DE626
00DA5DBF000000000000000000F50038006A000000000000002800E5D09F00D5
B100002B70002600000000FF00000000000000000000E500F7001DFB000036F3
0000000000000000000000000000000000000000000000000000000000000000
0000000000000000000000000000000000000000000000000000000000000000
0000000000000000000000000000000000000000000000000000000000000000
0000000000000000000000000000000000000000000000000000000000000000
0000000000000000000000000000000000000000000000000000000000000000
0000000000000000000000000000000000000000000000000000000000000000
0000000000000000000000000000000000000000000000000000000000000000
0000000000000000000000000000000000000000000000000000000000000000
0000000000000000000000000000000000000000000000000000000000000000
0000000000000000000000000000000000000000000000000000000000000000
0000000000000000000000000000000000000000000000000000000000000000
0000000000000000000000000000000000000000000000000000000000000000
0000000000000000000000000000000000000000000000000000000000000000
0000000000000000000000000000000000000000000000000000000000000000
0000000000000000000000000000000000000000000000000000000000000000
0000000000000000000000000000000000000000000000000000000000000000
0000000000000000000000000000000000000000000000000000000000000000
0000000000000000000000000000000000000000000000000000000000000000
0000000000000000000000000000000000000000000000000000000000000000
0000000000000000000000000000000000000000000000000000000000000000
0000000000000000000000000000000000000000000000000000000000000000
0000000000000000000000000000000000000000000000000000000000000000
0000000000000000000000000000000000000000000000000000000000000000
0000000000000000000000000000000000000000000000000000000000000000
B9D600000000350000002E0010000018BE000000F8003523D59200B8FE424600
0000950300C3000000CD0B0000F7002700B81900E200A30030892A001826E202
0081F35E0000000000000000000F00D500E100000000000000EF005772EA00F6
CE0000DD2B00BE00000000FF00000000000000000000D7000500E88E0000DC3A
15B700000000FF0000004700F600001DE8000000D00026AC54E5003BEE26F000
0000EC3F0073000000D70200001B00EE001DF0001B00C500F70B1D0036B006E7
00A275DA000000000000000000F30014009F00000000000000B400F40B6400D9
810000FFF6002A00000000FF000000000000000000002D00D70008490000C725
