1414F2ADEA9AE587E88102019CDC097F147F81F3CCE0F0E07FAA81B5EADA8181
812781F6FA0F8AE321DAE4F2273ACAFCA3088B8181AB02148117100ED081DBF9
B6F602C2141ADAD9FB1DB1A41E0C6A81C9E2F3EFF0E3030306031DECF2E6D4D7
016ADBD7E00681DD21DCE8B52806E4A793D12C393FA509D6AFB1C3E0081BFF15
0BB081147FD30004F781FA018100DB410E0AF3C104A204E60E81AC81FAEB8CF0
ADD8D30E10F78197A6811A08FF377D0CFAF981D4A68103D2BEE9D301016881FB
090FD381D009ED1DD235F2B77FB02382F9D5A61681D6FEB56F81F406F59AD381
ED3BE6F7DFE0F71649280FF32D110F818FFE367FD6B4EBD981ABFFC2EB7F0CD9
1EE6F0E075D70002F3AE0DD68C01B2EBFD060681043CF00959D8F1BE07C995FB
DFBCC9F9AD819481D3E6F3D8DE00EFF80FDDA002CD898EA0A8AC1381BA30FA9F
F9E5818DA9280C67BA880E010A812603D90281D89481EA0207BA81E7DABB0DC1
ECDB050E0DECCD81A3EF04FFD12FEDA3110B36C2EC15F9819B2313B2813F81F7
1217F1EC09810E8181DD1806B70A0155823DD2E3A081BAD6090AF70207FD0AF5
C6060D00EED8F60DA896FC10C6CD915E81F424DD0640F212ADF9DEB3FE9B0B12
FBF6FA2FAA7F81EC2453BBCE01097FB6EB810DD112FB81977202B8D12081948B
1A7F81DC1D81CEC4F5969D8A2D7F81122B813862BD81DFFC0D81D81AFB09F6FC
F991C8C878BAEFC9C519FAEF00FC81238104051081B281F80F01EF06038ADB01
1807DCF4D618C3F681CBAAF9C4952917F417C202F188E9C8A3BC03FC8125B1C6
F2FBE5B8DE2DF4150900FBB172E700EA2DF407F8E2D10CF17F09ADF125D887DB
1A0AE9FF81CADBF117A081000258E1B7B9C97F7E819BB518E3CF2209FEF8EF81
28F6178F130DF20C08C6A4F41B81DC24A11406DA11EDEE09F2FD1A0DF4811903
F388100281DC81D61F0F1B8138BE955612F0CC05B7F78181A8E5D71D8117EE81
09CA0AEE0D09E97FEE97092340B80629E852DD97F788BA080DDE9715EEA50BC1
22C5FEFF850D19F2BAF0DE0C817CFDAD9900FC69B6AB81CE09C03FC8BEE413E3
1CE0001CD7D5ED17FBF1FC03A6090324DB2FB5E6A28F1881C4F70ADEFB1FFEFD
F7D9FBCD0BFFF3DDA1D4D40481CFF27FC4E3EFEC11D0240AFC8181BD09BE02F3
0B0D01E48638DFD6116281A7E6F63B16818FF00AC70006815CFFFC811CACD10F
6169E28190FBF5F87F22DF812F4DFCF40AC5EFDEFAE4FBFEE2C28104F811EC83
0281F7B7F8148102E315C1E7009DF7FFEF11FF04269FAFCAEAF1D0DAF3980600
F606F191EDEB2BF1F7E681FBD09B7F57C6D3FDFD06BFCBD102CDB4F9D531DCF7
A4DD0A21810FFDD124C8CE81FC01F5F5E8EEF6EA08FCF7073DEF1CFE7FE58115
7F1BF0F4FF1605D65681ECFC1958FE21810CEEDC06ECDFEF030BCC090D07E0DF
7F12DD81FF0906E2FED68181FBE008DC3CF3F701A9D3F1E3FF02E3E88181A7EF
E681F081CFFE012107F5B09EFC811438D581FEE2C613B0E519D00CEBC721EB15
8181C859F32BF1117F81F4EA2BEB0CA01D42098104110402F909D0F03B3204FD
FE4803E815FFEE1406DA13F6A8200A16D601E208180A1D040AFD977FDFFEFA08
