04F80A81E8078181FC8102FFFB81AF81D9FDC581F402970C81868F0CFEFE1007
813319D80408F681FA068806120681058109C5A6817F7FFB81F90E81B4F2FCFE
31EC81818106F4090281FC810081CFF502DD07099D041481BF8181E8F581F702
04CDFBFCA3080481F081B381F781C6F8F600F9008181F8F7D2EFF809B1C4E8A3
81F681AA0301810808F1F615FD050705FB81E2068191CF0212BE0D9BACEBF4FF
81D305000581F2FBC30B078103EEF21EFFFD8106008FFFF181ACEAF88181D4D7
2D81C381E9E8C705048181C6EE05F63D021718D881F7FAF78107B59A03EC1EEE
81110AF7C2E3CD0E88F9EDBD81FC94FC81A8FEAE01090702FCF000010481E2F8
07A997A5EDEEDD1C0702AFFFFDD602CD811DFDCCEC0B07E5BD8181E704D57FBE
0581431BFA0A0CF3FCDCCCDD81FDE903DAFD8AD5F2EBF9060287D0FDD90FF202
7F55D893DBFB81EDF0F281FD08A9E108D509240E1BFD819BBDF3B7077FBA81D6
EC817FE281F0FECE81E58100D5C0AC00DEFC0E8108EF0B81EDB3DBE396EA1181
FF81C3CCA605BAE7AF0D818104EDF90316BEE68EB081133BF5810D8181017FB6
D3BFF501CA0409F31BDEE5BA86EF037FEFEDF2D80181F8FFD0AE8181F100C300
7F8300D90681F6E9EEFBF9A381F00675F7B983FC01CFA21CC7F0FBD408F681B8
D5F8E807F68181A9BFF88110AB00EE8109810481D8E3FEFFF08BDAFDDAC90181
FF8181D8E4070FC1FB07270104D605D7DDAD07190581F8110B9CB1BB81F7FED9
FD90EC810BEDF8FE1581090CFA000BFC10F78181FFA42D03CC8181F706EA19F7
E6DBEF0508F9DBDA0E0EE705F2A581EBB8F48DFEE8069CAAEEE8DFF3EEF5D581
03A4D3000CB1FF09BCDD9303818881EEEF81819AF9F8E9CCD981E58181B5F430
0AABC2A48100F8EDCFECCB02F415FDEDFBF50F8183EBD8BFDFA6F3EA0600E4F5
E2EBD8EAFEF681FF81810AE081F4FAFF81CB1D1101E2B3FFA7812F1E0A0981DB
09F402E3FCE2F5FDB6050581F78100F4810B81ED02F68101EF04F3D7ECE39A81
01FE060710F59E810E04C6F68FFFFF03EC98F7B209CD03EBF78181048106E9AC
810CF1FA8CEA0383FEF5F5FE81B4DDFCFED6F68E07008181F6F8CA97EAEDF781
0311E816818D90941FED81A192BE0586CDEA00F2EB2CE305FD15F7078101A006
FC81FA050C8102F2EC000BBEE1BE02F8D50612E881070BFF04FB02EDF8EB0809
F501FD8407FCE7FAEBF509AFAFF1D80381FB01D4E8B70101D7FF93CAE3C9F014
0204D004BAE700F381E30CF3FB06F0CBC9C6E9DFC70481E2DD00CFF70A81DA8B
11D5E78181E702CDF9C0E3FC05E7F8E4D881A2F6CBF981E808DD0404FBA7FF0D
FBE9B8F208D5F6D805DE03F9940EFAE9FF94F481D502098117810D818101AF04
DDA9EE0F8105FEC3FF810281EE0508FED4CA81FED58181FA8105FCDBF3EAF2FB
EAF3FE46FF05FD0CEDDF81C9FD02E9F50181060A81EDFBFAFFFC060CEEFD06FB
E9A4FD86F3EBFD06E808EC0BFADAF0FF0709F51D0CAA0BEAFDD403FBF6F5CFF0
F5ED20FF9FF9FDE8AAF8F908CD5FFD0C7FDDD881E182F5027FD803EA1A3BF1EC
09F71502FF030802F541E9FB0A07F2FDEB02F103FD04CFC07F000706327F81DA
F8FF03E4F9810408FFFCECD4FDD20FFD8106F30DFBC984B581010FF2E4EB2BF2
7310D3EAF100EBDEF806F007F981DBED0002198105EF0BF7E9FF89E407F333FE
07FF0314F8F78181F00300FCF2E70FC8F414FB0B03EA0CED7901F701D9CB5DE2
040614FDFDFAFC05F3FCFFF5C4FD7FF9000EFD0CFE07FFE7C602F39704F7EEFA
13EEE10323FDFFF80EF42081F7F7FE0BFFE2EA0402CFF30009F900F4F701FD0B
00EEE6D0EEF3F3F58ADD0CF308FF000201FDF10CF0F009DB040EAC0414811881
F8A2FF09480F0481F3EB01FD06ECDDBC07818190E4F5D9002410E381F500EA06
DDB2F801F0ED0603F708E9FEFEF91FDB07E89FED0200A8963C01070008390FF4
FBF2E281FBC4FDDB09F204D2FCFEF1D0B10581F9160795A59F000600FFF8EE03
1D1081FDFDFCCB15C30181F300BC81F9BB07F6B5EB0DF88104FA930FFE0DED81
0509FDE5E60C9FD081F8F90A0605F5E4FA04D5F903B974140707E4F912A40CFD
F903FEA803F9FD0902FFF50706A4000B07FD05FF81010681DFFBB9EDDDFEEE08
D61104FC81EB04E0090923F7DA2102FF01C004E3F8EADCAD06FD0181F681EA02
FB358100D08181FB05032981FF81FE8102810017045017020601E6F3B3F3BE00
A8C6EF070AA80D0C0508FD09810F06F1E3D4E91B1BECD400E0F70A0BEDF3E5F9
0208DD810281BB1A090001B2BC020C019E1205DF050DFBCAF30581C8F20EEAED
F300F508FC07050D9F0DF8D1F1E981811A09FFD6F7DE9E81F70081F914DC0081
E68117E6B71AFD8104080DD60809F2BAD9A3B9EB810A8403FA0514C708B90FF6
D111810EB90DC2EDFF09060BC108FBCCF58119C4FDE0E2A0E29181870ABD17EC
0D81FF05E5080607008D0506EDF3C4FAEFCFE1FC16E7BC04B2F5F8AC02138108
06080913EDC7FBA20001C4060FF58106FCA1A217B006E5FF02FEFBFE0CFB07E9
0140E5D7ED0AFAF1B1F916EFF5A308E80CC413EAF20F0DEAFB240BFB130081F8
F2F601FF27EDFCFF9D040AFAFE37F2DF299D31CC07810800EF2FFE010ED9101A
0201D90307FD81F40309F9C50C06FFDE06E2FBF7F211151ED70DF8F4FFEA8211
0206F52CE1FCFFE2FCBA0FDAC581CBCBD1F7E6FDE313F2D4F2FFE7FD09080C09
07AAED20E1FE00F50802900905070DC70FF914AAFE1101F50D043906FAD2FEFA
FE10E3E9ED0425E518FDED02E2C7DA8108F2EAF1F31DF4DE13F0C125D39CDE02
FCFBCBFCFC030208EEF2FD1304F7EFF702FCFB0583FBFC08E5F5FE810105EB0C
0CFCEA08EF81001D8102DF8BF61115F106EC81DEFB02010EEBFDEFF004F104E8
D524148D080D171281FCC9FFF7E9F70BF8E8F9DD09331681F2EFC0FEEF092DDB
15F8FDE7ED01FDB7810401FA09E90481151CC2EF02EAFC0111DB07C9F40104E8
8116D7F9FA06D4F8ECF90BF808F8CC81F3F9150BFADD81B9DFFF01F7F7E7DEDD
0CF40ECDE8E8F981FF81E8BA81C6FAFDD4FAA508D6ECD9BB8802DAF208FDBBFD
1903ABFEF105EEBDD704B9080DD60A29FAFAE3DB10E9E7FEF7F90CD10404F313
15D7F31781EC9DFEDAF402FBFAD081DA05D5210EF9812B1521FED3FFF281D3F7
0DFF8181FD05F9EF8101EBFCF581F3F9E70305FD9DFA0EEF1F03E7FCE8DC2F03
